alignas(8) const unsigned char tflite_model[] = {
  0x20, 0x00, 0x00, 0x00, 0x54, 0x46, 0x4c, 0x33, 0x00, 0x00, 0x00, 0x00,
  0x14, 0x00, 0x20, 0x00, 0x1c, 0x00, 0x18, 0x00, 0x14, 0x00, 0x10, 0x00,
  0x0c, 0x00, 0x00, 0x00, 0x08, 0x00, 0x04, 0x00, 0x14, 0x00, 0x00, 0x00,
  0x1c, 0x00, 0x00, 0x00, 0x88, 0x00, 0x00, 0x00, 0xb8, 0x00, 0x00, 0x00,
  0x38, 0x08, 0x00, 0x00, 0x48, 0x08, 0x00, 0x00, 0x28, 0x12, 0x00, 0x00,
  0x03, 0x00, 0x00, 0x00, 0x01, 0x00, 0x00, 0x00, 0x04, 0x00, 0x00, 0x00,
  0x06, 0xf7, 0xff, 0xff, 0x0c, 0x00, 0x00, 0x00, 0x1c, 0x00, 0x00, 0x00,
  0x40, 0x00, 0x00, 0x00, 0x0f, 0x00, 0x00, 0x00, 0x73, 0x65, 0x72, 0x76,
  0x69, 0x6e, 0x67, 0x5f, 0x64, 0x65, 0x66, 0x61, 0x75, 0x6c, 0x74, 0x00,
  0x01, 0x00, 0x00, 0x00, 0x04, 0x00, 0x00, 0x00, 0xbc, 0xff, 0xff, 0xff,
  0x0c, 0x00, 0x00, 0x00, 0x04, 0x00, 0x00, 0x00, 0x0d, 0x00, 0x00, 0x00,
  0x71, 0x75, 0x61, 0x6e, 0x74, 0x5f, 0x64, 0x65, 0x6e, 0x73, 0x65, 0x5f,
  0x31, 0x00, 0x00, 0x00, 0x01, 0x00, 0x00, 0x00, 0x04, 0x00, 0x00, 0x00,
  0xae, 0xf7, 0xff, 0xff, 0x04, 0x00, 0x00, 0x00, 0x07, 0x00, 0x00, 0x00,
  0x69, 0x6e, 0x70, 0x75, 0x74, 0x5f, 0x31, 0x00, 0x01, 0x00, 0x00, 0x00,
  0x0c, 0x00, 0x00, 0x00, 0x08, 0x00, 0x0c, 0x00, 0x08, 0x00, 0x04, 0x00,
  0x08, 0x00, 0x00, 0x00, 0x0e, 0x00, 0x00, 0x00, 0x04, 0x00, 0x00, 0x00,
  0x13, 0x00, 0x00, 0x00, 0x6d, 0x69, 0x6e, 0x5f, 0x72, 0x75, 0x6e, 0x74,
  0x69, 0x6d, 0x65, 0x5f, 0x76, 0x65, 0x72, 0x73, 0x69, 0x6f, 0x6e, 0x00,
  0x0f, 0x00, 0x00, 0x00, 0x7c, 0x07, 0x00, 0x00, 0x74, 0x07, 0x00, 0x00,
  0x5c, 0x07, 0x00, 0x00, 0x44, 0x07, 0x00, 0x00, 0x34, 0x05, 0x00, 0x00,
  0x04, 0x05, 0x00, 0x00, 0xfc, 0x04, 0x00, 0x00, 0xf4, 0x04, 0x00, 0x00,
  0xec, 0x04, 0x00, 0x00, 0xe4, 0x04, 0x00, 0x00, 0x54, 0x00, 0x00, 0x00,
  0x34, 0x00, 0x00, 0x00, 0x2c, 0x00, 0x00, 0x00, 0x24, 0x00, 0x00, 0x00,
  0x04, 0x00, 0x00, 0x00, 0x36, 0xf8, 0xff, 0xff, 0x04, 0x00, 0x00, 0x00,
  0x10, 0x00, 0x00, 0x00, 0x32, 0x2e, 0x33, 0x2e, 0x30, 0x00, 0x00, 0x00,
  0x00, 0x00, 0x00, 0x00, 0x00, 0x00, 0x00, 0x00, 0xbc, 0xef, 0xff, 0xff,
  0xc0, 0xef, 0xff, 0xff, 0x5a, 0xf8, 0xff, 0xff, 0x04, 0x00, 0x00, 0x00,
  0x10, 0x00, 0x00, 0x00, 0xe8, 0xfc, 0xff, 0xff, 0x99, 0xfb, 0xff, 0xff,
  0x4f, 0x00, 0x00, 0x00, 0xdc, 0x05, 0x00, 0x00, 0x76, 0xf8, 0xff, 0xff,
  0x04, 0x00, 0x00, 0x00, 0x80, 0x04, 0x00, 0x00, 0x05, 0xfb, 0x0c, 0xee,
  0xf7, 0xfe, 0xf0, 0xfb, 0x0a, 0xfb, 0xfe, 0x05, 0x04, 0x02, 0x0e, 0x11,
  0x02, 0xfc, 0x05, 0xf4, 0xf2, 0x01, 0x00, 0xfe, 0x05, 0xf9, 0x04, 0xf8,
  0x05, 0xfe, 0xfe, 0x07, 0xfc, 0xf9, 0xfd, 0xfa, 0x01, 0xfa, 0xfd, 0x03,
  0xf2, 0xf7, 0xfd, 0xfc, 0xfe, 0xfa, 0xfe, 0xf8, 0x96, 0xf7, 0x05, 0xb1,
  0xa5, 0x05, 0x87, 0x86, 0xf7, 0xfa, 0x01, 0xf5, 0xf3, 0x0a, 0xfb, 0xfa,
  0xfb, 0xfa, 0xff, 0xfb, 0xf6, 0xf2, 0xfc, 0x01, 0x02, 0xf8, 0x04, 0xfa,
  0x01, 0x01, 0xff, 0xf9, 0x01, 0xf9, 0x01, 0xf6, 0xff, 0xf6, 0xfd, 0xfb,
  0x06, 0xf9, 0xfc, 0xfb, 0xf1, 0x01, 0xfc, 0xf6, 0xe8, 0x17, 0x18, 0xde,
  0xe5, 0xf3, 0xf3, 0x08, 0x02, 0xf0, 0x05, 0xef, 0xe3, 0x01, 0xef, 0x05,
  0xf1, 0xf6, 0xf6, 0xf4, 0xf5, 0xfe, 0xef, 0xe6, 0xfc, 0xfb, 0x03, 0xf6,
  0xf9, 0x03, 0xf2, 0xf7, 0xf3, 0xfb, 0xfd, 0xf9, 0xf3, 0xf3, 0xfb, 0x03,
  0xe2, 0xf9, 0xfa, 0xf6, 0xeb, 0xf5, 0xf9, 0x03, 0xf1, 0x07, 0x10, 0xda,
  0xea, 0x02, 0xf3, 0xfd, 0xf3, 0xfd, 0xfb, 0xf6, 0xe9, 0xf9, 0x10, 0x07,
  0xef, 0xfb, 0xf4, 0xf5, 0xec, 0xf0, 0xf0, 0xfb, 0xf9, 0xf9, 0xf0, 0xfc,
  0xfa, 0xfd, 0xef, 0x03, 0xfc, 0xf8, 0xf7, 0xf9, 0xf3, 0xfa, 0xf7, 0xf0,
  0xf6, 0xfb, 0xfa, 0xfa, 0xeb, 0xfa, 0xf9, 0xfc, 0xeb, 0x17, 0x22, 0xf4,
  0xdc, 0xec, 0xdb, 0x04, 0xfc, 0xf7, 0xea, 0xe5, 0xe8, 0xfd, 0x0a, 0xff,
  0xf4, 0xf4, 0xf0, 0xf2, 0xeb, 0xeb, 0xeb, 0xf3, 0x03, 0xfb, 0xf9, 0xfd,
  0xfe, 0xff, 0xf2, 0xfb, 0xff, 0xfe, 0xf5, 0xf9, 0xe5, 0xf3, 0x00, 0x01,
  0x00, 0xf7, 0xef, 0xf6, 0xf4, 0xf7, 0xf7, 0xeb, 0xf0, 0x10, 0x12, 0xf9,
  0xee, 0xee, 0xea, 0xff, 0xfa, 0xfc, 0xfd, 0xf5, 0xf3, 0x02, 0x13, 0x0e,
  0xf7, 0xfa, 0xf9, 0xed, 0xe8, 0xf2, 0xf2, 0xf9, 0xf9, 0xf7, 0xff, 0xf0,
  0xfb, 0xf6, 0xf6, 0xf0, 0xf9, 0xfc, 0xf8, 0xf4, 0xee, 0xf5, 0xf4, 0xf9,
  0xf5, 0xfa, 0xf5, 0xfb, 0xfb, 0xf5, 0xf4, 0xec, 0xf5, 0xf0, 0xe8, 0xec,
  0xec, 0xfa, 0xf2, 0xf2, 0xff, 0xf4, 0x05, 0xf5, 0xef, 0x01, 0xf4, 0xf3,
  0xfd, 0xf4, 0xfd, 0xef, 0xf7, 0xfe, 0x00, 0x01, 0xf8, 0xf3, 0x02, 0xe7,
  0xf2, 0xf5, 0xfb, 0xf8, 0xfa, 0xfb, 0xf8, 0xeb, 0xf4, 0xf5, 0xfe, 0xfa,
  0x00, 0xf4, 0xfe, 0xeb, 0xf6, 0xfe, 0xff, 0xfc, 0xee, 0xe7, 0xe9, 0xfe,
  0xf3, 0xef, 0x02, 0xe1, 0xef, 0xfb, 0xfa, 0xfc, 0xf3, 0xf8, 0xf4, 0xeb,
  0xff, 0xf2, 0xfe, 0xee, 0xf8, 0xff, 0xfc, 0x03, 0xfe, 0xfb, 0x01, 0xf1,
  0xfb, 0xfe, 0x01, 0x07, 0xf9, 0xf9, 0xfc, 0xeb, 0xf9, 0xfe, 0xfd, 0x02,
  0x03, 0xf7, 0xf8, 0xeb, 0xf8, 0x00, 0xfd, 0xfd, 0xf7, 0xe8, 0xf2, 0xfb,
  0xf2, 0xec, 0xfc, 0xfd, 0x02, 0xf0, 0xf8, 0xed, 0xf3, 0x01, 0xfe, 0x05,
  0xf8, 0xf2, 0xff, 0xee, 0xf2, 0xf6, 0xf3, 0xed, 0x02, 0xf7, 0x02, 0xf0,
  0xfb, 0xf9, 0xfe, 0xfb, 0xff, 0xf4, 0xff, 0xec, 0xfa, 0xfb, 0xfd, 0xf3,
  0xfe, 0xf3, 0xfc, 0xef, 0xfe, 0xff, 0xfe, 0xf8, 0xf6, 0xe9, 0xe2, 0xfd,
  0xf8, 0xee, 0x09, 0xfd, 0xf2, 0xf7, 0xfa, 0xf7, 0xf3, 0xe2, 0xf6, 0xe2,
  0x02, 0xf3, 0xed, 0xe9, 0xeb, 0xe9, 0xf7, 0x08, 0xfc, 0xf2, 0xfb, 0xf2,
  0xf7, 0xfa, 0xfc, 0x00, 0xfd, 0xf8, 0xf9, 0xed, 0xf5, 0x02, 0xfd, 0x02,
  0x05, 0xf7, 0xfe, 0xef, 0xfb, 0x02, 0xfd, 0x05, 0xdc, 0xe8, 0xc0, 0xfb,
  0x00, 0xda, 0x08, 0xe7, 0xe3, 0xfb, 0xea, 0xec, 0xd0, 0xd5, 0xff, 0xff,
  0xf7, 0xf6, 0xf3, 0xeb, 0xf4, 0x00, 0xed, 0xed, 0xf6, 0xf5, 0xfc, 0xf3,
  0xf2, 0xf8, 0x01, 0xff, 0x04, 0xf6, 0xfd, 0xf5, 0x00, 0x01, 0x03, 0xfd,
  0x00, 0xf6, 0x03, 0xeb, 0xf8, 0xfd, 0x02, 0x03, 0xeb, 0xeb, 0xd6, 0x21,
  0xf5, 0xe8, 0x1c, 0x09, 0xec, 0xf5, 0xf2, 0xe3, 0xea, 0xf3, 0xe9, 0xe5,
  0xf4, 0xf6, 0xf1, 0xf2, 0xeb, 0xf2, 0xf6, 0xfb, 0xf9, 0xf6, 0x03, 0xe1,
  0xf1, 0xfa, 0xfa, 0x00, 0xf3, 0xfa, 0xf6, 0xe7, 0xef, 0xf7, 0xf6, 0xf5,
  0xf8, 0xf6, 0xfc, 0xe7, 0xf0, 0x04, 0xf9, 0xfb, 0xbc, 0x02, 0xcc, 0xe6,
  0xcb, 0xc6, 0x04, 0xe5, 0xdd, 0xf9, 0x01, 0xef, 0xd4, 0xef, 0xfc, 0xcf,
  0xf1, 0xfd, 0x0a, 0xfe, 0xee, 0x0b, 0x08, 0xf6, 0xeb, 0xfb, 0x07, 0xf9,
  0xe7, 0x05, 0x05, 0xf1, 0xf5, 0xfb, 0x05, 0xf7, 0xed, 0x07, 0x07, 0xf7,
  0xfc, 0xf8, 0x0b, 0xff, 0xfb, 0x0c, 0x08, 0x0e, 0xfc, 0x05, 0xe4, 0xf5,
  0xeb, 0xd6, 0x08, 0x02, 0xf0, 0xff, 0xfc, 0xf1, 0xf0, 0xed, 0x0a, 0xf4,
  0xe3, 0xfc, 0x08, 0xfb, 0xe9, 0x02, 0x05, 0xe9, 0xe6, 0xfc, 0x08, 0xfb,
  0xeb, 0x00, 0x06, 0xe5, 0xf3, 0xfb, 0x06, 0xf8, 0xeb, 0x04, 0x03, 0xf6,
  0xfd, 0x02, 0x0b, 0xfa, 0xfa, 0x08, 0x03, 0xf7, 0xe8, 0xf8, 0xe2, 0xfb,
  0xf0, 0xe7, 0x0c, 0xee, 0xe4, 0x03, 0x05, 0x0a, 0x01, 0xf3, 0x13, 0xe8,
  0xf5, 0xfa, 0xfd, 0x04, 0xf6, 0xf9, 0x16, 0xf9, 0xf4, 0xfc, 0x06, 0xf8,
  0xf0, 0x00, 0x15, 0xfa, 0xf0, 0xfa, 0x04, 0xf4, 0xf7, 0x03, 0x0a, 0xe9,
  0xf1, 0xfd, 0x03, 0xfc, 0xf4, 0x08, 0x0b, 0x04, 0xf0, 0xfd, 0xf0, 0xfa,
  0xf2, 0xf9, 0x08, 0xee, 0x04, 0xf8, 0x01, 0x06, 0x09, 0x0b, 0xfc, 0x02,
  0xf4, 0xfd, 0x14, 0x02, 0x02, 0x0e, 0x15, 0xe9, 0xf4, 0xfd, 0x0d, 0xf7,
  0xed, 0x04, 0x10, 0xea, 0xed, 0xfd, 0x06, 0xfa, 0xeb, 0xfe, 0x0b, 0xf6,
  0xfa, 0xfb, 0x0e, 0xf6, 0xf0, 0x07, 0x09, 0xf6, 0xff, 0x00, 0xea, 0xf0,
  0xf0, 0xfa, 0x0d, 0xfb, 0xf3, 0x04, 0x19, 0x1a, 0x13, 0x14, 0xfe, 0xf3,
  0xf3, 0x02, 0x13, 0x06, 0xfb, 0x13, 0x22, 0x0f, 0xf0, 0xfc, 0x0c, 0xf7,
  0xed, 0x00, 0x12, 0x04, 0xf9, 0xfb, 0x10, 0xfa, 0xf5, 0x0a, 0x06, 0xee,
  0xfc, 0xfa, 0x0c, 0x01, 0x02, 0x0e, 0x0c, 0x09, 0xe9, 0xff, 0xf4, 0xd1,
  0xd4, 0xfc, 0x08, 0xe0, 0xe6, 0xfd, 0x05, 0x0a, 0xea, 0xf8, 0x05, 0xe5,
  0x02, 0x00, 0x18, 0x07, 0xfb, 0x0d, 0x15, 0x04, 0x02, 0xff, 0x06, 0x08,
  0x05, 0x13, 0x11, 0x02, 0x05, 0xf8, 0x15, 0x03, 0x01, 0x15, 0x13, 0x01,
  0x16, 0xfc, 0x18, 0x01, 0xf8, 0x0a, 0x10, 0x09, 0x0c, 0x0d, 0x0a, 0x20,
  0x0c, 0x0b, 0x16, 0x08, 0x01, 0x12, 0x01, 0x20, 0x0c, 0xff, 0xfa, 0xf8,
  0x03, 0x0d, 0xfb, 0x1f, 0x0f, 0xf6, 0x02, 0x03, 0x09, 0x0c, 0xff, 0x1f,
  0x05, 0xfe, 0xfe, 0xfe, 0x04, 0x11, 0x01, 0x1d, 0x0d, 0x07, 0x01, 0xfc,
  0x03, 0x0d, 0x03, 0x1f, 0x0c, 0x08, 0xfd, 0x05, 0xc5, 0x0d, 0x07, 0xfc,
  0xdc, 0xf5, 0xe2, 0xb1, 0xfd, 0x0d, 0x05, 0x23, 0x09, 0x00, 0xfb, 0xf9,
  0x08, 0x0b, 0x02, 0x20, 0x12, 0x0c, 0x02, 0x01, 0x02, 0x0d, 0xff, 0x1a,
  0x09, 0xff, 0xfd, 0xfc, 0x05, 0x0d, 0xff, 0x1d, 0x06, 0x00, 0xfe, 0x02,
  0xfe, 0x0e, 0xff, 0x19, 0x0f, 0xfc, 0xfb, 0x03, 0x9b, 0xf7, 0xc6, 0xcb,
  0xa5, 0xde, 0x9b, 0x94, 0xed, 0x0e, 0xfa, 0x1b, 0xfe, 0xfd, 0xeb, 0xe1,
  0x02, 0x0b, 0xf8, 0x1a, 0x09, 0x0a, 0xfc, 0xff, 0x00, 0x0c, 0x02, 0x1e,
  0x07, 0xfb, 0xff, 0x00, 0x02, 0x10, 0xfe, 0x1f, 0x0a, 0x07, 0xfe, 0x04,
  0x11, 0x0b, 0x00, 0x1b, 0x06, 0x07, 0xfd, 0x07, 0x81, 0x0d, 0x98, 0xcc,
  0x9b, 0x8f, 0x8f, 0xbb, 0xe9, 0x13, 0xf5, 0x17, 0xfd, 0xf4, 0xe2, 0xef,
  0xfe, 0x0e, 0xf9, 0x16, 0x06, 0x03, 0xfc, 0xfd, 0x03, 0x0c, 0xfc, 0x1d,
  0x05, 0xfb, 0xfa, 0xff, 0xfe, 0x0e, 0x09, 0x1e, 0x10, 0xfd, 0xff, 0x04,
  0xff, 0x0d, 0xfc, 0x1a, 0x10, 0xfb, 0xfc, 0xfe, 0xce, 0xe0, 0xc6, 0xe9,
  0xcb, 0xbc, 0x8b, 0x91, 0xf2, 0x0e, 0xf6, 0x18, 0xfd, 0xf1, 0xe1, 0xdf,
  0x05, 0x0f, 0xfb, 0x1a, 0x05, 0xfc, 0xfe, 0xf9, 0x06, 0x0d, 0xf9, 0x21,
  0x0b, 0xfb, 0xff, 0xff, 0xfe, 0x10, 0x02, 0x20, 0x0b, 0xf9, 0x00, 0xfe,
  0x07, 0x0a, 0xf9, 0x1a, 0x10, 0xfa, 0xfc, 0xfb, 0xdf, 0xf6, 0xdf, 0xf4,
  0xec, 0xe9, 0xdc, 0xdf, 0xfc, 0x09, 0xf7, 0x1f, 0x04, 0xf7, 0xeb, 0xf1,
  0xfa, 0x0d, 0xfb, 0x16, 0x11, 0x05, 0x00, 0xfb, 0xff, 0x0b, 0xfc, 0x1b,
  0x05, 0xf9, 0xfd, 0xfb, 0x02, 0x11, 0xfc, 0x19, 0x10, 0x01, 0xfd, 0x02,
  0x01, 0x09, 0xfa, 0x1d, 0x10, 0x02, 0xfd, 0xfb, 0x6c, 0xf4, 0xff, 0xff,
  0x70, 0xf4, 0xff, 0xff, 0x74, 0xf4, 0xff, 0xff, 0x78, 0xf4, 0xff, 0xff,
  0x12, 0xfd, 0xff, 0xff, 0x04, 0x00, 0x00, 0x00, 0x20, 0x00, 0x00, 0x00,
  0xf9, 0xff, 0xff, 0xff, 0xb7, 0xff, 0xff, 0xff, 0x4a, 0xff, 0xff, 0xff,
  0x27, 0x00, 0x00, 0x00, 0xa8, 0x00, 0x00, 0x00, 0x89, 0xff, 0xff, 0xff,
  0xdc, 0xff, 0xff, 0xff, 0xc1, 0xff, 0xff, 0xff, 0x3e, 0xfd, 0xff, 0xff,
  0x04, 0x00, 0x00, 0x00, 0x00, 0x02, 0x00, 0x00, 0x12, 0xb5, 0x89, 0x01,
  0x07, 0xd4, 0x0f, 0xf7, 0x17, 0xb5, 0xa7, 0x11, 0x39, 0xc1, 0xcc, 0xc8,
  0x22, 0xd5, 0x23, 0x32, 0xf5, 0xbf, 0x0d, 0x2e, 0xa9, 0x0a, 0x59, 0x81,
  0x3d, 0x33, 0xfc, 0x32, 0x1e, 0x30, 0x5d, 0xd7, 0x5a, 0x03, 0xa0, 0xaa,
  0xf0, 0x06, 0x2e, 0xee, 0x1f, 0xc1, 0xa3, 0x20, 0xc4, 0xef, 0x02, 0xd5,
  0x6c, 0x0a, 0x09, 0xb5, 0x45, 0x29, 0x03, 0xe3, 0x18, 0xce, 0xd4, 0xf4,
  0x1e, 0x02, 0x40, 0x6d, 0x65, 0x61, 0x08, 0xe3, 0xfb, 0xcc, 0x26, 0x5d,
  0x04, 0xfa, 0x0f, 0xec, 0xd0, 0x9f, 0xc3, 0x0d, 0xac, 0x23, 0xe5, 0xfe,
  0xae, 0xc3, 0x90, 0xbc, 0xa2, 0x01, 0x22, 0xea, 0xe3, 0x81, 0xc5, 0x2b,
  0xf4, 0xd8, 0xef, 0x12, 0x04, 0x96, 0x03, 0x67, 0x2e, 0xe9, 0xe4, 0xea,
  0x0f, 0xbd, 0x3c, 0x73, 0x38, 0x0c, 0x10, 0xd6, 0xfc, 0xde, 0x11, 0x26,
  0x2c, 0xf1, 0xe5, 0xe5, 0x04, 0xd3, 0x27, 0x53, 0x10, 0x3f, 0x03, 0x20,
  0xed, 0xe2, 0xe6, 0xb4, 0xc3, 0x0a, 0x22, 0xf8, 0xbc, 0xe2, 0xaf, 0x0c,
  0xd3, 0xcc, 0xdd, 0xf0, 0xea, 0xde, 0x54, 0x75, 0x3a, 0xf2, 0xe9, 0x06,
  0x16, 0x02, 0x35, 0x52, 0x3b, 0x19, 0x2e, 0x26, 0x0f, 0xe4, 0xb7, 0xde,
  0xe8, 0xe2, 0xe0, 0x2c, 0xbd, 0x9e, 0x8b, 0xc0, 0x81, 0x28, 0xd1, 0x53,
  0xa8, 0x97, 0xc7, 0x7f, 0x2d, 0x3b, 0x18, 0x20, 0xfb, 0x54, 0xdd, 0x81,
  0xf6, 0xbf, 0x22, 0xd0, 0x04, 0x3f, 0xea, 0xa3, 0xf6, 0xbe, 0x6e, 0x16,
  0xeb, 0x2e, 0x17, 0xab, 0xe9, 0x53, 0x33, 0xcb, 0xd4, 0x1b, 0x01, 0xe4,
  0xf6, 0x36, 0x4c, 0xeb, 0xff, 0x0a, 0xf6, 0xf5, 0xfa, 0xf6, 0xf6, 0x55,
  0xf8, 0xfe, 0xec, 0xbb, 0x10, 0x3b, 0x16, 0x0b, 0xf6, 0x2e, 0xd0, 0xc1,
  0x0a, 0x19, 0x44, 0xef, 0xdf, 0x16, 0x02, 0xda, 0x3b, 0x03, 0x46, 0xf2,
  0xb8, 0xef, 0x3f, 0xe8, 0x4a, 0x35, 0x36, 0xca, 0x05, 0x5b, 0xcc, 0xd4,
  0xcb, 0x3d, 0xf0, 0xf4, 0xe8, 0x4e, 0x3d, 0x24, 0x0d, 0xf7, 0xd9, 0xcd,
  0xe7, 0x3a, 0xfb, 0x0c, 0xd9, 0xa0, 0xce, 0xb3, 0xfa, 0x5b, 0x1c, 0x60,
  0x1c, 0x16, 0x8f, 0x26, 0xf7, 0x47, 0xd8, 0x04, 0xe7, 0xed, 0x81, 0xcb,
  0xf7, 0x74, 0x20, 0xec, 0xbc, 0x3b, 0xdf, 0x8b, 0xbf, 0x7b, 0x15, 0xe9,
  0xb2, 0xe0, 0xd6, 0xa6, 0xd6, 0xcf, 0x46, 0xe0, 0x34, 0x2e, 0x53, 0x08,
  0x08, 0xc8, 0x08, 0xda, 0xee, 0x53, 0x3d, 0xec, 0xfe, 0xe9, 0x7b, 0x14,
  0x59, 0xf2, 0xba, 0x08, 0x21, 0x2d, 0x6d, 0xe6, 0xe5, 0x2e, 0xd2, 0x0c,
  0xc1, 0x04, 0x29, 0xe6, 0xff, 0xd5, 0x19, 0xb0, 0xbf, 0xb3, 0xf0, 0xc2,
  0xda, 0xd0, 0xeb, 0xce, 0x81, 0xd1, 0xb1, 0xc8, 0xee, 0x3e, 0x3a, 0xdd,
  0xa6, 0x8f, 0xa5, 0xe3, 0x0c, 0x06, 0x2b, 0x12, 0x2b, 0x39, 0x99, 0x1f,
  0x15, 0x4b, 0x07, 0x23, 0x13, 0x2b, 0x9b, 0xdf, 0x40, 0x2f, 0x13, 0x24,
  0x1b, 0x02, 0xf4, 0xe3, 0x33, 0x33, 0x0a, 0x5f, 0x14, 0xde, 0xdf, 0xe6,
  0x4a, 0x35, 0x22, 0x5f, 0x2c, 0xf9, 0x81, 0x25, 0xf8, 0xd6, 0xf6, 0xfb,
  0x09, 0x24, 0x8a, 0xc3, 0xaa, 0xe5, 0xe8, 0xda, 0x10, 0x7f, 0xcc, 0xd0,
  0x0f, 0xd8, 0x7d, 0x03, 0xf0, 0x25, 0x1a, 0xf0, 0xc2, 0x2b, 0x18, 0x6f,
  0x1f, 0x39, 0xfb, 0xec, 0x10, 0xd3, 0x19, 0x2d, 0xff, 0x47, 0x38, 0x2c,
  0x3c, 0x0c, 0x06, 0x17, 0xed, 0xd1, 0x81, 0x15, 0x18, 0x13, 0xf2, 0x02,
  0xb5, 0xc5, 0xea, 0xce, 0x0b, 0xf5, 0x15, 0x24, 0x97, 0xb7, 0xa9, 0xdb,
  0xf5, 0x06, 0x1e, 0x0a, 0xa3, 0xb1, 0xcc, 0xfd, 0x12, 0xc3, 0xdd, 0x0b,
  0x10, 0x29, 0xf4, 0xcd, 0xed, 0xbe, 0xd0, 0x22, 0x45, 0x04, 0xfc, 0x65,
  0x36, 0x45, 0xf6, 0x24, 0x4a, 0xff, 0xff, 0xff, 0x04, 0x00, 0x00, 0x00,
  0x08, 0x00, 0x00, 0x00, 0xff, 0xff, 0xff, 0xff, 0x20, 0x01, 0x00, 0x00,
  0x5e, 0xff, 0xff, 0xff, 0x04, 0x00, 0x00, 0x00, 0x08, 0x00, 0x00, 0x00,
  0x20, 0x00, 0x00, 0x00, 0x20, 0x00, 0x00, 0x00, 0xdc, 0xf6, 0xff, 0xff,
  0xe0, 0xf6, 0xff, 0xff, 0x0f, 0x00, 0x00, 0x00, 0x4d, 0x4c, 0x49, 0x52,
  0x20, 0x43, 0x6f, 0x6e, 0x76, 0x65, 0x72, 0x74, 0x65, 0x64, 0x2e, 0x00,
  0x01, 0x00, 0x00, 0x00, 0x14, 0x00, 0x00, 0x00, 0x00, 0x00, 0x0e, 0x00,
  0x18, 0x00, 0x14, 0x00, 0x10, 0x00, 0x0c, 0x00, 0x08, 0x00, 0x04, 0x00,
  0x0e, 0x00, 0x00, 0x00, 0x14, 0x00, 0x00, 0x00, 0x1c, 0x00, 0x00, 0x00,
  0xc8, 0x01, 0x00, 0x00, 0xcc, 0x01, 0x00, 0x00, 0xd0, 0x01, 0x00, 0x00,
  0x04, 0x00, 0x00, 0x00, 0x6d, 0x61, 0x69, 0x6e, 0x00, 0x00, 0x00, 0x00,
  0x06, 0x00, 0x00, 0x00, 0x74, 0x01, 0x00, 0x00, 0x10, 0x01, 0x00, 0x00,
  0xac, 0x00, 0x00, 0x00, 0x84, 0x00, 0x00, 0x00, 0x40, 0x00, 0x00, 0x00,
  0x04, 0x00, 0x00, 0x00, 0x12, 0xff, 0xff, 0xff, 0x1c, 0x00, 0x00, 0x00,
  0x00, 0x00, 0x00, 0x09, 0x1c, 0x00, 0x00, 0x00, 0x20, 0x00, 0x00, 0x00,
  0x05, 0x00, 0x00, 0x00, 0x00, 0x00, 0x06, 0x00, 0x08, 0x00, 0x04, 0x00,
  0x06, 0x00, 0x00, 0x00, 0x00, 0x00, 0x80, 0x3f, 0x01, 0x00, 0x00, 0x00,
  0x0c, 0x00, 0x00, 0x00, 0x01, 0x00, 0x00, 0x00, 0x0b, 0x00, 0x00, 0x00,
  0x4a, 0xff, 0xff, 0xff, 0x14, 0x00, 0x00, 0x00, 0x00, 0x00, 0x00, 0x08,
  0x10, 0x00, 0x00, 0x00, 0x14, 0x00, 0x00, 0x00, 0x04, 0x00, 0x00, 0x00,
  0xa0, 0xf7, 0xff, 0xff, 0x01, 0x00, 0x00, 0x00, 0x0b, 0x00, 0x00, 0x00,
  0x03, 0x00, 0x00, 0x00, 0x08, 0x00, 0x00, 0x00, 0x09, 0x00, 0x00, 0x00,
  0x0a, 0x00, 0x00, 0x00, 0x00, 0x00, 0x0a, 0x00, 0x10, 0x00, 0x0c, 0x00,
  0x08, 0x00, 0x04, 0x00, 0x0a, 0x00, 0x00, 0x00, 0x0c, 0x00, 0x00, 0x00,
  0x10, 0x00, 0x00, 0x00, 0x03, 0x00, 0x00, 0x00, 0x01, 0x00, 0x00, 0x00,
  0x08, 0x00, 0x00, 0x00, 0x02, 0x00, 0x00, 0x00, 0x07, 0x00, 0x00, 0x00,
  0x02, 0x00, 0x00, 0x00, 0xae, 0xff, 0xff, 0xff, 0x24, 0x00, 0x00, 0x00,
  0x00, 0x00, 0x00, 0x05, 0x34, 0x00, 0x00, 0x00, 0x38, 0x00, 0x00, 0x00,
  0x02, 0x00, 0x00, 0x00, 0x00, 0x00, 0x0e, 0x00, 0x18, 0x00, 0x17, 0x00,
  0x10, 0x00, 0x0c, 0x00, 0x08, 0x00, 0x04, 0x00, 0x0e, 0x00, 0x00, 0x00,
  0x02, 0x00, 0x00, 0x00, 0x02, 0x00, 0x00, 0x00, 0x02, 0x00, 0x00, 0x00,
  0x02, 0x00, 0x00, 0x00, 0x00, 0x00, 0x00, 0x01, 0x01, 0x00, 0x00, 0x00,
  0x07, 0x00, 0x00, 0x00, 0x01, 0x00, 0x00, 0x00, 0x06, 0x00, 0x00, 0x00,
  0x00, 0x00, 0x0e, 0x00, 0x18, 0x00, 0x14, 0x00, 0x10, 0x00, 0x0c, 0x00,
  0x0b, 0x00, 0x04, 0x00, 0x0e, 0x00, 0x00, 0x00, 0x20, 0x00, 0x00, 0x00,
  0x00, 0x00, 0x00, 0x01, 0x2c, 0x00, 0x00, 0x00, 0x30, 0x00, 0x00, 0x00,
  0x01, 0x00, 0x00, 0x00, 0x0c, 0x00, 0x14, 0x00, 0x13, 0x00, 0x0c, 0x00,
  0x08, 0x00, 0x07, 0x00, 0x0c, 0x00, 0x00, 0x00, 0x00, 0x00, 0x00, 0x01,
  0x02, 0x00, 0x00, 0x00, 0x02, 0x00, 0x00, 0x00, 0x00, 0x00, 0x00, 0x01,
  0x01, 0x00, 0x00, 0x00, 0x06, 0x00, 0x00, 0x00, 0x03, 0x00, 0x00, 0x00,
  0x05, 0x00, 0x00, 0x00, 0x03, 0x00, 0x00, 0x00, 0x04, 0x00, 0x00, 0x00,
  0x00, 0x00, 0x0e, 0x00, 0x14, 0x00, 0x00, 0x00, 0x10, 0x00, 0x0c, 0x00,
  0x0b, 0x00, 0x04, 0x00, 0x0e, 0x00, 0x00, 0x00, 0x18, 0x00, 0x00, 0x00,
  0x00, 0x00, 0x00, 0x4a, 0x18, 0x00, 0x00, 0x00, 0x1c, 0x00, 0x00, 0x00,
  0x08, 0x00, 0x08, 0x00, 0x00, 0x00, 0x07, 0x00, 0x08, 0x00, 0x00, 0x00,
  0x00, 0x00, 0x00, 0x01, 0x01, 0x00, 0x00, 0x00, 0x05, 0x00, 0x00, 0x00,
  0x02, 0x00, 0x00, 0x00, 0x00, 0x00, 0x00, 0x00, 0x01, 0x00, 0x00, 0x00,
  0x01, 0x00, 0x00, 0x00, 0x0c, 0x00, 0x00, 0x00, 0x01, 0x00, 0x00, 0x00,
  0x00, 0x00, 0x00, 0x00, 0x0d, 0x00, 0x00, 0x00, 0x50, 0x07, 0x00, 0x00,
  0xec, 0x06, 0x00, 0x00, 0x98, 0x06, 0x00, 0x00, 0x88, 0x05, 0x00, 0x00,
  0x8c, 0x04, 0x00, 0x00, 0xf0, 0x03, 0x00, 0x00, 0x24, 0x03, 0x00, 0x00,
  0x98, 0x02, 0x00, 0x00, 0x24, 0x02, 0x00, 0x00, 0x78, 0x01, 0x00, 0x00,
  0x1c, 0x01, 0x00, 0x00, 0x80, 0x00, 0x00, 0x00, 0x04, 0x00, 0x00, 0x00,
  0xf8, 0xf8, 0xff, 0xff, 0x18, 0x00, 0x00, 0x00, 0x20, 0x00, 0x00, 0x00,
  0x40, 0x00, 0x00, 0x00, 0x0d, 0x00, 0x00, 0x00, 0x00, 0x00, 0x00, 0x09,
  0x54, 0x00, 0x00, 0x00, 0x02, 0x00, 0x00, 0x00, 0xff, 0xff, 0xff, 0xff,
  0x04, 0x00, 0x00, 0x00, 0xdc, 0xf8, 0xff, 0xff, 0x08, 0x00, 0x00, 0x00,
  0x14, 0x00, 0x00, 0x00, 0x01, 0x00, 0x00, 0x00, 0x80, 0xff, 0xff, 0xff,
  0xff, 0xff, 0xff, 0xff, 0x00, 0x00, 0x00, 0x00, 0x01, 0x00, 0x00, 0x00,
  0x00, 0x00, 0x80, 0x3b, 0x19, 0x00, 0x00, 0x00, 0x53, 0x74, 0x61, 0x74,
  0x65, 0x66, 0x75, 0x6c, 0x50, 0x61, 0x72, 0x74, 0x69, 0x74, 0x69, 0x6f,
  0x6e, 0x65, 0x64, 0x43, 0x61, 0x6c, 0x6c, 0x3a, 0x30, 0x00, 0x00, 0x00,
  0x02, 0x00, 0x00, 0x00, 0x01, 0x00, 0x00, 0x00, 0x04, 0x00, 0x00, 0x00,
  0x70, 0xf9, 0xff, 0xff, 0x18, 0x00, 0x00, 0x00, 0x20, 0x00, 0x00, 0x00,
  0x40, 0x00, 0x00, 0x00, 0x0c, 0x00, 0x00, 0x00, 0x00, 0x00, 0x00, 0x09,
  0x74, 0x00, 0x00, 0x00, 0x02, 0x00, 0x00, 0x00, 0xff, 0xff, 0xff, 0xff,
  0x04, 0x00, 0x00, 0x00, 0x54, 0xf9, 0xff, 0xff, 0x08, 0x00, 0x00, 0x00,
  0x14, 0x00, 0x00, 0x00, 0x01, 0x00, 0x00, 0x00, 0x66, 0x00, 0x00, 0x00,
  0x00, 0x00, 0x00, 0x00, 0x00, 0x00, 0x00, 0x00, 0x01, 0x00, 0x00, 0x00,
  0xb4, 0xfd, 0xba, 0x3d, 0x3a, 0x00, 0x00, 0x00, 0x6d, 0x6f, 0x64, 0x65,
  0x6c, 0x5f, 0x31, 0x2f, 0x71, 0x75, 0x61, 0x6e, 0x74, 0x5f, 0x64, 0x65,
  0x6e, 0x73, 0x65, 0x5f, 0x31, 0x2f, 0x4d, 0x61, 0x74, 0x4d, 0x75, 0x6c,
  0x3b, 0x6d, 0x6f, 0x64, 0x65, 0x6c, 0x5f, 0x31, 0x2f, 0x71, 0x75, 0x61,
  0x6e, 0x74, 0x5f, 0x64, 0x65, 0x6e, 0x73, 0x65, 0x5f, 0x31, 0x2f, 0x42,
  0x69, 0x61, 0x73, 0x41, 0x64, 0x64, 0x00, 0x00, 0x02, 0x00, 0x00, 0x00,
  0x01, 0x00, 0x00, 0x00, 0x04, 0x00, 0x00, 0x00, 0x62, 0xfa, 0xff, 0xff,
  0x14, 0x00, 0x00, 0x00, 0x34, 0x00, 0x00, 0x00, 0x0b, 0x00, 0x00, 0x00,
  0x00, 0x00, 0x00, 0x02, 0x3c, 0x00, 0x00, 0x00, 0xdc, 0xf9, 0xff, 0xff,
  0x08, 0x00, 0x00, 0x00, 0x14, 0x00, 0x00, 0x00, 0x01, 0x00, 0x00, 0x00,
  0x00, 0x00, 0x00, 0x00, 0x00, 0x00, 0x00, 0x00, 0x00, 0x00, 0x00, 0x00,
  0x01, 0x00, 0x00, 0x00, 0x34, 0x0d, 0x2d, 0x3a, 0x0c, 0x00, 0x00, 0x00,
  0x64, 0x65, 0x6e, 0x73, 0x65, 0x5f, 0x31, 0x2f, 0x62, 0x69, 0x61, 0x73,
  0x00, 0x00, 0x00, 0x00, 0x01, 0x00, 0x00, 0x00, 0x04, 0x00, 0x00, 0x00,
  0xba, 0xfa, 0xff, 0xff, 0x14, 0x00, 0x00, 0x00, 0x34, 0x00, 0x00, 0x00,
  0x0a, 0x00, 0x00, 0x00, 0x00, 0x00, 0x00, 0x09, 0x88, 0x00, 0x00, 0x00,
  0x34, 0xfa, 0xff, 0xff, 0x08, 0x00, 0x00, 0x00, 0x14, 0x00, 0x00, 0x00,
  0x01, 0x00, 0x00, 0x00, 0x00, 0x00, 0x00, 0x00, 0x00, 0x00, 0x00, 0x00,
  0x00, 0x00, 0x00, 0x00, 0x01, 0x00, 0x00, 0x00, 0x5c, 0xfc, 0x08, 0x3d,
  0x59, 0x00, 0x00, 0x00, 0x6d, 0x6f, 0x64, 0x65, 0x6c, 0x5f, 0x31, 0x2f,
  0x71, 0x75, 0x61, 0x6e, 0x74, 0x5f, 0x64, 0x65, 0x6e, 0x73, 0x65, 0x5f,
  0x31, 0x2f, 0x4d, 0x61, 0x74, 0x4d, 0x75, 0x6c, 0x3b, 0x6d, 0x6f, 0x64,
  0x65, 0x6c, 0x5f, 0x31, 0x2f, 0x71, 0x75, 0x61, 0x6e, 0x74, 0x5f, 0x64,
  0x65, 0x6e, 0x73, 0x65, 0x5f, 0x31, 0x2f, 0x4c, 0x61, 0x73, 0x74, 0x56,
  0x61, 0x6c, 0x75, 0x65, 0x51, 0x75, 0x61, 0x6e, 0x74, 0x2f, 0x46, 0x61,
  0x6b, 0x65, 0x51, 0x75, 0x61, 0x6e, 0x74, 0x57, 0x69, 0x74, 0x68, 0x4d,
  0x69, 0x6e, 0x4d, 0x61, 0x78, 0x56, 0x61, 0x72, 0x73, 0x00, 0x00, 0x00,
  0x02, 0x00, 0x00, 0x00, 0x04, 0x00, 0x00, 0x00, 0x20, 0x01, 0x00, 0x00,
  0x08, 0xfb, 0xff, 0xff, 0x18, 0x00, 0x00, 0x00, 0x20, 0x00, 0x00, 0x00,
  0x3c, 0x00, 0x00, 0x00, 0x09, 0x00, 0x00, 0x00, 0x00, 0x00, 0x00, 0x09,
  0x4c, 0x00, 0x00, 0x00, 0x02, 0x00, 0x00, 0x00, 0xff, 0xff, 0xff, 0xff,
  0x20, 0x01, 0x00, 0x00, 0xec, 0xfa, 0xff, 0xff, 0x08, 0x00, 0x00, 0x00,
  0x10, 0x00, 0x00, 0x00, 0x01, 0x00, 0x00, 0x00, 0xe2, 0xff, 0xff, 0xff,
  0xff, 0xff, 0xff, 0xff, 0x01, 0x00, 0x00, 0x00, 0x34, 0xb3, 0xa1, 0x3c,
  0x17, 0x00, 0x00, 0x00, 0x6d, 0x6f, 0x64, 0x65, 0x6c, 0x5f, 0x31, 0x2f,
  0x66, 0x6c, 0x61, 0x74, 0x74, 0x65, 0x6e, 0x2f, 0x52, 0x65, 0x73, 0x68,
  0x61, 0x70, 0x65, 0x00, 0x02, 0x00, 0x00, 0x00, 0x01, 0x00, 0x00, 0x00,
  0x20, 0x01, 0x00, 0x00, 0x78, 0xfb, 0xff, 0xff, 0x18, 0x00, 0x00, 0x00,
  0x28, 0x00, 0x00, 0x00, 0x44, 0x00, 0x00, 0x00, 0x08, 0x00, 0x00, 0x00,
  0x00, 0x00, 0x00, 0x09, 0x5c, 0x00, 0x00, 0x00, 0x04, 0x00, 0x00, 0x00,
  0xff, 0xff, 0xff, 0xff, 0x06, 0x00, 0x00, 0x00, 0x06, 0x00, 0x00, 0x00,
  0x08, 0x00, 0x00, 0x00, 0x64, 0xfb, 0xff, 0xff, 0x08, 0x00, 0x00, 0x00,
  0x10, 0x00, 0x00, 0x00, 0x01, 0x00, 0x00, 0x00, 0xe2, 0xff, 0xff, 0xff,
  0xff, 0xff, 0xff, 0xff, 0x01, 0x00, 0x00, 0x00, 0x34, 0xb3, 0xa1, 0x3c,
  0x1d, 0x00, 0x00, 0x00, 0x6d, 0x6f, 0x64, 0x65, 0x6c, 0x5f, 0x31, 0x2f,
  0x6d, 0x61, 0x78, 0x5f, 0x70, 0x6f, 0x6f, 0x6c, 0x69, 0x6e, 0x67, 0x32,
  0x64, 0x2f, 0x4d, 0x61, 0x78, 0x50, 0x6f, 0x6f, 0x6c, 0x00, 0x00, 0x00,
  0x04, 0x00, 0x00, 0x00, 0x01, 0x00, 0x00, 0x00, 0x06, 0x00, 0x00, 0x00,
  0x06, 0x00, 0x00, 0x00, 0x08, 0x00, 0x00, 0x00, 0x00, 0xfc, 0xff, 0xff,
  0x18, 0x00, 0x00, 0x00, 0x28, 0x00, 0x00, 0x00, 0x44, 0x00, 0x00, 0x00,
  0x07, 0x00, 0x00, 0x00, 0x00, 0x00, 0x00, 0x09, 0x9c, 0x00, 0x00, 0x00,
  0x04, 0x00, 0x00, 0x00, 0xff, 0xff, 0xff, 0xff, 0x0d, 0x00, 0x00, 0x00,
  0x0d, 0x00, 0x00, 0x00, 0x08, 0x00, 0x00, 0x00, 0xec, 0xfb, 0xff, 0xff,
  0x08, 0x00, 0x00, 0x00, 0x10, 0x00, 0x00, 0x00, 0x01, 0x00, 0x00, 0x00,
  0xe2, 0xff, 0xff, 0xff, 0xff, 0xff, 0xff, 0xff, 0x01, 0x00, 0x00, 0x00,
  0x34, 0xb3, 0xa1, 0x3c, 0x5f, 0x00, 0x00, 0x00, 0x6d, 0x6f, 0x64, 0x65,
  0x6c, 0x5f, 0x31, 0x2f, 0x71, 0x75, 0x61, 0x6e, 0x74, 0x5f, 0x63, 0x6f,
  0x6e, 0x76, 0x32, 0x64, 0x2f, 0x52, 0x65, 0x6c, 0x75, 0x3b, 0x6d, 0x6f,
  0x64, 0x65, 0x6c, 0x5f, 0x31, 0x2f, 0x71, 0x75, 0x61, 0x6e, 0x74, 0x5f,
  0x63, 0x6f, 0x6e, 0x76, 0x32, 0x64, 0x2f, 0x42, 0x69, 0x61, 0x73, 0x41,
  0x64, 0x64, 0x3b, 0x6d, 0x6f, 0x64, 0x65, 0x6c, 0x5f, 0x31, 0x2f, 0x71,
  0x75, 0x61, 0x6e, 0x74, 0x5f, 0x63, 0x6f, 0x6e, 0x76, 0x32, 0x64, 0x2f,
  0x43, 0x6f, 0x6e, 0x76, 0x32, 0x44, 0x3b, 0x63, 0x6f, 0x6e, 0x76, 0x32,
  0x64, 0x2f, 0x62, 0x69, 0x61, 0x73, 0x31, 0x00, 0x04, 0x00, 0x00, 0x00,
  0x01, 0x00, 0x00, 0x00, 0x0d, 0x00, 0x00, 0x00, 0x0d, 0x00, 0x00, 0x00,
  0x08, 0x00, 0x00, 0x00, 0xc8, 0xfc, 0xff, 0xff, 0x18, 0x00, 0x00, 0x00,
  0x28, 0x00, 0x00, 0x00, 0x44, 0x00, 0x00, 0x00, 0x06, 0x00, 0x00, 0x00,
  0x00, 0x00, 0x00, 0x09, 0x6c, 0x00, 0x00, 0x00, 0x04, 0x00, 0x00, 0x00,
  0xff, 0xff, 0xff, 0xff, 0x20, 0x00, 0x00, 0x00, 0x20, 0x00, 0x00, 0x00,
  0x01, 0x00, 0x00, 0x00, 0xb4, 0xfc, 0xff, 0xff, 0x08, 0x00, 0x00, 0x00,
  0x10, 0x00, 0x00, 0x00, 0x01, 0x00, 0x00, 0x00, 0x80, 0xff, 0xff, 0xff,
  0xff, 0xff, 0xff, 0xff, 0x01, 0x00, 0x00, 0x00, 0xba, 0xb9, 0x81, 0x3e,
  0x2d, 0x00, 0x00, 0x00, 0x6d, 0x6f, 0x64, 0x65, 0x6c, 0x5f, 0x31, 0x2f,
  0x72, 0x65, 0x73, 0x69, 0x7a, 0x69, 0x6e, 0x67, 0x2f, 0x72, 0x65, 0x73,
  0x69, 0x7a, 0x65, 0x2f, 0x52, 0x65, 0x73, 0x69, 0x7a, 0x65, 0x4e, 0x65,
  0x61, 0x72, 0x65, 0x73, 0x74, 0x4e, 0x65, 0x69, 0x67, 0x68, 0x62, 0x6f,
  0x72, 0x00, 0x00, 0x00, 0x04, 0x00, 0x00, 0x00, 0x01, 0x00, 0x00, 0x00,
  0x20, 0x00, 0x00, 0x00, 0x20, 0x00, 0x00, 0x00, 0x01, 0x00, 0x00, 0x00,
  0xba, 0xfd, 0xff, 0xff, 0x14, 0x00, 0x00, 0x00, 0x84, 0x00, 0x00, 0x00,
  0x05, 0x00, 0x00, 0x00, 0x00, 0x00, 0x00, 0x02, 0xdc, 0x00, 0x00, 0x00,
  0x34, 0xfd, 0xff, 0xff, 0x08, 0x00, 0x00, 0x00, 0x48, 0x00, 0x00, 0x00,
  0x08, 0x00, 0x00, 0x00, 0x00, 0x00, 0x00, 0x00, 0x00, 0x00, 0x00, 0x00,
  0x00, 0x00, 0x00, 0x00, 0x00, 0x00, 0x00, 0x00, 0x00, 0x00, 0x00, 0x00,
  0x00, 0x00, 0x00, 0x00, 0x00, 0x00, 0x00, 0x00, 0x00, 0x00, 0x00, 0x00,
  0x00, 0x00, 0x00, 0x00, 0x00, 0x00, 0x00, 0x00, 0x00, 0x00, 0x00, 0x00,
  0x00, 0x00, 0x00, 0x00, 0x00, 0x00, 0x00, 0x00, 0x00, 0x00, 0x00, 0x00,
  0x00, 0x00, 0x00, 0x00, 0x00, 0x00, 0x00, 0x00, 0x08, 0x00, 0x00, 0x00,
  0xaa, 0x4f, 0xc3, 0x39, 0xd7, 0x4d, 0xe9, 0x39, 0xed, 0x6f, 0xf4, 0x39,
  0x67, 0xab, 0xe5, 0x39, 0xc0, 0x32, 0xb8, 0x39, 0x88, 0x4b, 0xc2, 0x39,
  0xf8, 0x02, 0xb7, 0x39, 0xc8, 0x98, 0xfa, 0x39, 0x5e, 0x00, 0x00, 0x00,
  0x6d, 0x6f, 0x64, 0x65, 0x6c, 0x5f, 0x31, 0x2f, 0x71, 0x75, 0x61, 0x6e,
  0x74, 0x5f, 0x63, 0x6f, 0x6e, 0x76, 0x32, 0x64, 0x2f, 0x52, 0x65, 0x6c,
  0x75, 0x3b, 0x6d, 0x6f, 0x64, 0x65, 0x6c, 0x5f, 0x31, 0x2f, 0x71, 0x75,
  0x61, 0x6e, 0x74, 0x5f, 0x63, 0x6f, 0x6e, 0x76, 0x32, 0x64, 0x2f, 0x42,
  0x69, 0x61, 0x73, 0x41, 0x64, 0x64, 0x3b, 0x6d, 0x6f, 0x64, 0x65, 0x6c,
  0x5f, 0x31, 0x2f, 0x71, 0x75, 0x61, 0x6e, 0x74, 0x5f, 0x63, 0x6f, 0x6e,
  0x76, 0x32, 0x64, 0x2f, 0x43, 0x6f, 0x6e, 0x76, 0x32, 0x44, 0x3b, 0x63,
  0x6f, 0x6e, 0x76, 0x32, 0x64, 0x2f, 0x62, 0x69, 0x61, 0x73, 0x00, 0x00,
  0x01, 0x00, 0x00, 0x00, 0x08, 0x00, 0x00, 0x00, 0xb2, 0xfe, 0xff, 0xff,
  0x14, 0x00, 0x00, 0x00, 0x88, 0x00, 0x00, 0x00, 0x04, 0x00, 0x00, 0x00,
  0x00, 0x00, 0x00, 0x09, 0xe4, 0x00, 0x00, 0x00, 0x2c, 0xfe, 0xff, 0xff,
  0x08, 0x00, 0x00, 0x00, 0x4c, 0x00, 0x00, 0x00, 0x08, 0x00, 0x00, 0x00,
  0x00, 0x00, 0x00, 0x00, 0x00, 0x00, 0x00, 0x00, 0x00, 0x00, 0x00, 0x00,
  0x00, 0x00, 0x00, 0x00, 0x00, 0x00, 0x00, 0x00, 0x00, 0x00, 0x00, 0x00,
  0x00, 0x00, 0x00, 0x00, 0x00, 0x00, 0x00, 0x00, 0x00, 0x00, 0x00, 0x00,
  0x00, 0x00, 0x00, 0x00, 0x00, 0x00, 0x00, 0x00, 0x00, 0x00, 0x00, 0x00,
  0x00, 0x00, 0x00, 0x00, 0x00, 0x00, 0x00, 0x00, 0x00, 0x00, 0x00, 0x00,
  0x00, 0x00, 0x00, 0x00, 0x00, 0x00, 0x00, 0x00, 0x08, 0x00, 0x00, 0x00,
  0x9d, 0xb6, 0xc0, 0x3a, 0x6b, 0x33, 0xe6, 0x3a, 0x99, 0x2f, 0xf1, 0x3a,
  0x5c, 0x9d, 0xe2, 0x3a, 0x8a, 0xbf, 0xb5, 0x3a, 0xf1, 0xb5, 0xbf, 0x3a,
  0xcc, 0x93, 0xb4, 0x3a, 0x7a, 0x43, 0xf7, 0x3a, 0x61, 0x00, 0x00, 0x00,
  0x6d, 0x6f, 0x64, 0x65, 0x6c, 0x5f, 0x31, 0x2f, 0x71, 0x75, 0x61, 0x6e,
  0x74, 0x5f, 0x63, 0x6f, 0x6e, 0x76, 0x32, 0x64, 0x2f, 0x43, 0x6f, 0x6e,
  0x76, 0x32, 0x44, 0x3b, 0x6d, 0x6f, 0x64, 0x65, 0x6c, 0x5f, 0x31, 0x2f,
  0x71, 0x75, 0x61, 0x6e, 0x74, 0x5f, 0x63, 0x6f, 0x6e, 0x76, 0x32, 0x64,
  0x2f, 0x4c, 0x61, 0x73, 0x74, 0x56, 0x61, 0x6c, 0x75, 0x65, 0x51, 0x75,
  0x61, 0x6e, 0x74, 0x2f, 0x46, 0x61, 0x6b, 0x65, 0x51, 0x75, 0x61, 0x6e,
  0x74, 0x57, 0x69, 0x74, 0x68, 0x4d, 0x69, 0x6e, 0x4d, 0x61, 0x78, 0x56,
  0x61, 0x72, 0x73, 0x50, 0x65, 0x72, 0x43, 0x68, 0x61, 0x6e, 0x6e, 0x65,
  0x6c, 0x00, 0x00, 0x00, 0x04, 0x00, 0x00, 0x00, 0x08, 0x00, 0x00, 0x00,
  0x08, 0x00, 0x00, 0x00, 0x08, 0x00, 0x00, 0x00, 0x01, 0x00, 0x00, 0x00,
  0xbe, 0xff, 0xff, 0xff, 0x14, 0x00, 0x00, 0x00, 0x14, 0x00, 0x00, 0x00,
  0x03, 0x00, 0x00, 0x00, 0x00, 0x00, 0x00, 0x02, 0x24, 0x00, 0x00, 0x00,
  0xb0, 0xff, 0xff, 0xff, 0x15, 0x00, 0x00, 0x00, 0x6d, 0x6f, 0x64, 0x65,
  0x6c, 0x5f, 0x31, 0x2f, 0x66, 0x6c, 0x61, 0x74, 0x74, 0x65, 0x6e, 0x2f,
  0x43, 0x6f, 0x6e, 0x73, 0x74, 0x00, 0x00, 0x00, 0x01, 0x00, 0x00, 0x00,
  0x02, 0x00, 0x00, 0x00, 0x00, 0x00, 0x0e, 0x00, 0x18, 0x00, 0x14, 0x00,
  0x13, 0x00, 0x0c, 0x00, 0x08, 0x00, 0x04, 0x00, 0x0e, 0x00, 0x00, 0x00,
  0x18, 0x00, 0x00, 0x00, 0x18, 0x00, 0x00, 0x00, 0x02, 0x00, 0x00, 0x00,
  0x00, 0x00, 0x00, 0x02, 0x30, 0x00, 0x00, 0x00, 0x04, 0x00, 0x04, 0x00,
  0x04, 0x00, 0x00, 0x00, 0x1c, 0x00, 0x00, 0x00, 0x6d, 0x6f, 0x64, 0x65,
  0x6c, 0x5f, 0x31, 0x2f, 0x72, 0x65, 0x73, 0x69, 0x7a, 0x69, 0x6e, 0x67,
  0x2f, 0x72, 0x65, 0x73, 0x69, 0x7a, 0x65, 0x2f, 0x73, 0x69, 0x7a, 0x65,
  0x00, 0x00, 0x00, 0x00, 0x01, 0x00, 0x00, 0x00, 0x02, 0x00, 0x00, 0x00,
  0x14, 0x00, 0x1c, 0x00, 0x18, 0x00, 0x17, 0x00, 0x10, 0x00, 0x0c, 0x00,
  0x08, 0x00, 0x00, 0x00, 0x00, 0x00, 0x04, 0x00, 0x14, 0x00, 0x00, 0x00,
  0x18, 0x00, 0x00, 0x00, 0x34, 0x00, 0x00, 0x00, 0x54, 0x00, 0x00, 0x00,
  0x01, 0x00, 0x00, 0x00, 0x00, 0x00, 0x00, 0x09, 0x68, 0x00, 0x00, 0x00,
  0x04, 0x00, 0x00, 0x00, 0xff, 0xff, 0xff, 0xff, 0x7c, 0x00, 0x00, 0x00,
  0x81, 0x00, 0x00, 0x00, 0x01, 0x00, 0x00, 0x00, 0x0c, 0x00, 0x0c, 0x00,
  0x00, 0x00, 0x00, 0x00, 0x08, 0x00, 0x04, 0x00, 0x0c, 0x00, 0x00, 0x00,
  0x08, 0x00, 0x00, 0x00, 0x14, 0x00, 0x00, 0x00, 0x01, 0x00, 0x00, 0x00,
  0x80, 0xff, 0xff, 0xff, 0xff, 0xff, 0xff, 0xff, 0x00, 0x00, 0x00, 0x00,
  0x01, 0x00, 0x00, 0x00, 0xba, 0xb9, 0x81, 0x3e, 0x19, 0x00, 0x00, 0x00,
  0x73, 0x65, 0x72, 0x76, 0x69, 0x6e, 0x67, 0x5f, 0x64, 0x65, 0x66, 0x61,
  0x75, 0x6c, 0x74, 0x5f, 0x69, 0x6e, 0x70, 0x75, 0x74, 0x5f, 0x31, 0x3a,
  0x30, 0x00, 0x00, 0x00, 0x04, 0x00, 0x00, 0x00, 0x01, 0x00, 0x00, 0x00,
  0x7c, 0x00, 0x00, 0x00, 0x81, 0x00, 0x00, 0x00, 0x01, 0x00, 0x00, 0x00,
  0x06, 0x00, 0x00, 0x00, 0x7c, 0x00, 0x00, 0x00, 0x5c, 0x00, 0x00, 0x00,
  0x48, 0x00, 0x00, 0x00, 0x38, 0x00, 0x00, 0x00, 0x18, 0x00, 0x00, 0x00,
  0x04, 0x00, 0x00, 0x00, 0xa8, 0xff, 0xff, 0xff, 0x19, 0x00, 0x00, 0x00,
  0x02, 0x00, 0x00, 0x00, 0x00, 0x00, 0x00, 0x19, 0xb8, 0xff, 0xff, 0xff,
  0x09, 0x00, 0x00, 0x00, 0x04, 0x00, 0x00, 0x00, 0x00, 0x00, 0x00, 0x09,
  0x0c, 0x00, 0x0c, 0x00, 0x0b, 0x00, 0x00, 0x00, 0x00, 0x00, 0x04, 0x00,
  0x0c, 0x00, 0x00, 0x00, 0x16, 0x00, 0x00, 0x00, 0x00, 0x00, 0x00, 0x16,
  0xe0, 0xff, 0xff, 0xff, 0x11, 0x00, 0x00, 0x00, 0x02, 0x00, 0x00, 0x00,
  0x00, 0x00, 0x00, 0x11, 0xf0, 0xff, 0xff, 0xff, 0x03, 0x00, 0x00, 0x00,
  0x03, 0x00, 0x00, 0x00, 0x00, 0x00, 0x00, 0x03, 0x0c, 0x00, 0x10, 0x00,
  0x0f, 0x00, 0x00, 0x00, 0x08, 0x00, 0x04, 0x00, 0x0c, 0x00, 0x00, 0x00,
  0x61, 0x00, 0x00, 0x00, 0x03, 0x00, 0x00, 0x00, 0x00, 0x00, 0x00, 0x61
};
