alignas(8) const unsigned char tflite_model[] = {
  0x20, 0x00, 0x00, 0x00, 0x54, 0x46, 0x4c, 0x33, 0x00, 0x00, 0x00, 0x00,
  0x14, 0x00, 0x20, 0x00, 0x1c, 0x00, 0x18, 0x00, 0x14, 0x00, 0x10, 0x00,
  0x0c, 0x00, 0x00, 0x00, 0x08, 0x00, 0x04, 0x00, 0x14, 0x00, 0x00, 0x00,
  0x1c, 0x00, 0x00, 0x00, 0x88, 0x00, 0x00, 0x00, 0xb8, 0x00, 0x00, 0x00,
  0x38, 0x08, 0x00, 0x00, 0x48, 0x08, 0x00, 0x00, 0x28, 0x12, 0x00, 0x00,
  0x03, 0x00, 0x00, 0x00, 0x01, 0x00, 0x00, 0x00, 0x04, 0x00, 0x00, 0x00,
  0x06, 0xf7, 0xff, 0xff, 0x0c, 0x00, 0x00, 0x00, 0x1c, 0x00, 0x00, 0x00,
  0x40, 0x00, 0x00, 0x00, 0x0f, 0x00, 0x00, 0x00, 0x73, 0x65, 0x72, 0x76,
  0x69, 0x6e, 0x67, 0x5f, 0x64, 0x65, 0x66, 0x61, 0x75, 0x6c, 0x74, 0x00,
  0x01, 0x00, 0x00, 0x00, 0x04, 0x00, 0x00, 0x00, 0xbc, 0xff, 0xff, 0xff,
  0x0c, 0x00, 0x00, 0x00, 0x04, 0x00, 0x00, 0x00, 0x0d, 0x00, 0x00, 0x00,
  0x71, 0x75, 0x61, 0x6e, 0x74, 0x5f, 0x64, 0x65, 0x6e, 0x73, 0x65, 0x5f,
  0x31, 0x00, 0x00, 0x00, 0x01, 0x00, 0x00, 0x00, 0x04, 0x00, 0x00, 0x00,
  0xae, 0xf7, 0xff, 0xff, 0x04, 0x00, 0x00, 0x00, 0x07, 0x00, 0x00, 0x00,
  0x69, 0x6e, 0x70, 0x75, 0x74, 0x5f, 0x31, 0x00, 0x01, 0x00, 0x00, 0x00,
  0x0c, 0x00, 0x00, 0x00, 0x08, 0x00, 0x0c, 0x00, 0x08, 0x00, 0x04, 0x00,
  0x08, 0x00, 0x00, 0x00, 0x0e, 0x00, 0x00, 0x00, 0x04, 0x00, 0x00, 0x00,
  0x13, 0x00, 0x00, 0x00, 0x6d, 0x69, 0x6e, 0x5f, 0x72, 0x75, 0x6e, 0x74,
  0x69, 0x6d, 0x65, 0x5f, 0x76, 0x65, 0x72, 0x73, 0x69, 0x6f, 0x6e, 0x00,
  0x0f, 0x00, 0x00, 0x00, 0x7c, 0x07, 0x00, 0x00, 0x74, 0x07, 0x00, 0x00,
  0x5c, 0x07, 0x00, 0x00, 0x44, 0x07, 0x00, 0x00, 0x34, 0x05, 0x00, 0x00,
  0x04, 0x05, 0x00, 0x00, 0xfc, 0x04, 0x00, 0x00, 0xf4, 0x04, 0x00, 0x00,
  0xec, 0x04, 0x00, 0x00, 0xe4, 0x04, 0x00, 0x00, 0x54, 0x00, 0x00, 0x00,
  0x34, 0x00, 0x00, 0x00, 0x2c, 0x00, 0x00, 0x00, 0x24, 0x00, 0x00, 0x00,
  0x04, 0x00, 0x00, 0x00, 0x36, 0xf8, 0xff, 0xff, 0x04, 0x00, 0x00, 0x00,
  0x10, 0x00, 0x00, 0x00, 0x32, 0x2e, 0x33, 0x2e, 0x30, 0x00, 0x00, 0x00,
  0x00, 0x00, 0x00, 0x00, 0x00, 0x00, 0x00, 0x00, 0xbc, 0xef, 0xff, 0xff,
  0xc0, 0xef, 0xff, 0xff, 0x5a, 0xf8, 0xff, 0xff, 0x04, 0x00, 0x00, 0x00,
  0x10, 0x00, 0x00, 0x00, 0x78, 0xfe, 0xff, 0xff, 0x9a, 0xfa, 0xff, 0xff,
  0xe1, 0xff, 0xff, 0xff, 0x0e, 0x06, 0x00, 0x00, 0x76, 0xf8, 0xff, 0xff,
  0x04, 0x00, 0x00, 0x00, 0x80, 0x04, 0x00, 0x00, 0x2a, 0x01, 0xfd, 0x33,
  0x07, 0xf6, 0x2c, 0x21, 0x04, 0x02, 0x04, 0x07, 0xf6, 0xfa, 0xfe, 0x01,
  0xff, 0x02, 0xfd, 0xff, 0xf9, 0xfe, 0xfe, 0xfd, 0x01, 0x00, 0xfd, 0xfe,
  0xfd, 0xfa, 0xff, 0x02, 0xe6, 0xfe, 0xfe, 0xfe, 0xf9, 0xfc, 0x00, 0xed,
  0xf7, 0x00, 0xfd, 0xff, 0xe7, 0xfc, 0xfd, 0xf4, 0xc9, 0xf3, 0xcd, 0xd9,
  0xf6, 0xd3, 0x44, 0xba, 0xed, 0xfe, 0xf3, 0xf2, 0xe5, 0xef, 0xf1, 0xf1,
  0x01, 0x00, 0xff, 0xfc, 0xfc, 0xff, 0xff, 0x00, 0xfc, 0xff, 0xfe, 0x00,
  0xfc, 0x00, 0x00, 0x00, 0xf1, 0xfd, 0xfd, 0xfa, 0xfb, 0xf4, 0xfc, 0xef,
  0xef, 0xff, 0x00, 0x01, 0xe7, 0xfb, 0xfd, 0xfa, 0xe5, 0xe4, 0xbd, 0xe6,
  0xe5, 0xe1, 0x1b, 0xcd, 0xfb, 0xfb, 0xfd, 0xfc, 0xe6, 0xf9, 0xc6, 0xf3,
  0xf7, 0xfc, 0xf6, 0xf2, 0xf1, 0xfd, 0xef, 0xf1, 0xff, 0x01, 0xff, 0xfd,
  0xf2, 0xfb, 0x01, 0xff, 0x06, 0x04, 0xfe, 0xfe, 0xfb, 0xfd, 0x01, 0xf6,
  0xf7, 0xff, 0xfd, 0xfe, 0xf5, 0xf3, 0xfa, 0xe9, 0xec, 0xf8, 0xc3, 0xe5,
  0xee, 0xf9, 0x12, 0xe1, 0xc8, 0x00, 0xf5, 0xf9, 0xe3, 0xdb, 0xc8, 0x0d,
  0xf3, 0xff, 0xf8, 0xf7, 0xe9, 0xef, 0xf0, 0xf8, 0x03, 0x01, 0xfd, 0x00,
  0xfb, 0xff, 0xfc, 0x01, 0xff, 0xff, 0xfd, 0xfd, 0x00, 0x00, 0xfd, 0x02,
  0xf4, 0x02, 0xfb, 0xfb, 0xf4, 0xff, 0xfd, 0xf5, 0xf5, 0x03, 0xfd, 0x11,
  0xf0, 0xf0, 0x09, 0xf4, 0xf6, 0x01, 0x02, 0xfc, 0xec, 0xe4, 0xda, 0xe8,
  0x05, 0x00, 0x00, 0xf3, 0xf1, 0xf1, 0xf2, 0xf4, 0x02, 0xff, 0x00, 0xfe,
  0xf9, 0xfd, 0xff, 0xfb, 0x00, 0x01, 0x05, 0xff, 0xff, 0x04, 0x02, 0xfc,
  0xfe, 0x00, 0x00, 0xfc, 0xf2, 0x00, 0xfe, 0xf3, 0xf4, 0xfe, 0xdd, 0xf7,
  0xf7, 0xf8, 0xfa, 0xf6, 0xee, 0xfe, 0xf5, 0xf3, 0xed, 0xfb, 0xf5, 0x0a,
  0x01, 0xff, 0x03, 0xfd, 0xff, 0x02, 0x02, 0x00, 0xf7, 0x01, 0xfc, 0xfc,
  0xfd, 0x03, 0x02, 0xfb, 0xf6, 0xfe, 0xfd, 0xfe, 0xf9, 0x03, 0xff, 0x02,
  0xfc, 0xff, 0xfb, 0xfc, 0xfb, 0x01, 0x02, 0xfc, 0xea, 0xfb, 0xfa, 0xe7,
  0xeb, 0xf7, 0xe0, 0xec, 0x07, 0xf8, 0x02, 0xfd, 0xf8, 0x04, 0xff, 0xff,
  0xfd, 0xf9, 0xfc, 0xf8, 0xfe, 0x03, 0x00, 0x03, 0xff, 0xf7, 0x01, 0xfe,
  0xfb, 0xff, 0xfd, 0x03, 0x03, 0xf8, 0xfb, 0xfc, 0x01, 0xfb, 0x02, 0x06,
  0xfa, 0xf9, 0x05, 0xfd, 0xf9, 0xff, 0xfe, 0xff, 0x02, 0x04, 0xf8, 0x01,
  0xeb, 0x18, 0xbf, 0xf9, 0xe0, 0xf4, 0xeb, 0xe8, 0xde, 0xe7, 0xe9, 0xe0,
  0xff, 0xf6, 0xf9, 0xf7, 0xf8, 0x01, 0xff, 0x02, 0xff, 0xf0, 0xfd, 0x01,
  0xf9, 0xf7, 0x02, 0x00, 0x01, 0xf6, 0xfe, 0x00, 0xfd, 0x04, 0x00, 0xff,
  0x02, 0xfa, 0xf7, 0x00, 0xf5, 0xfa, 0xff, 0x00, 0xf2, 0x0e, 0x00, 0x00,
  0xf6, 0xf5, 0xf6, 0xff, 0xf6, 0xf3, 0xfb, 0x00, 0xf8, 0xf9, 0xfd, 0xf8,
  0xff, 0xfc, 0xfd, 0xfa, 0xee, 0xf8, 0xfa, 0xf7, 0xfe, 0xf9, 0xef, 0xfd,
  0xfc, 0xf9, 0xf9, 0xf7, 0xfc, 0xf8, 0xf7, 0xf6, 0xf7, 0xf3, 0xfb, 0xf7,
  0xf2, 0xf8, 0xfc, 0xfa, 0xf4, 0xf4, 0xf8, 0xf3, 0xf4, 0xf5, 0xfb, 0xfc,
  0xf9, 0xfe, 0xf0, 0xeb, 0xf5, 0xf1, 0xe6, 0xf4, 0xf4, 0xf8, 0x02, 0xdd,
  0xff, 0xf7, 0xef, 0xf1, 0xef, 0xfc, 0xfc, 0x03, 0xfd, 0xf7, 0xf7, 0xfe,
  0xf8, 0xff, 0xfd, 0x02, 0xf8, 0xf3, 0xf7, 0xfa, 0xec, 0xfe, 0xf9, 0xfc,
  0xfb, 0xfa, 0xf4, 0xf7, 0xf8, 0xfd, 0xf8, 0xf9, 0xf9, 0x09, 0xf1, 0x0b,
  0xf5, 0xf7, 0xdf, 0xec, 0xdc, 0xf5, 0xe1, 0xdb, 0xda, 0xea, 0xff, 0xe5,
  0xfd, 0xf7, 0xff, 0xf4, 0xef, 0xf6, 0xed, 0xe9, 0xff, 0xf7, 0x00, 0xff,
  0xfa, 0xfa, 0x02, 0x0e, 0x05, 0xf6, 0xff, 0xff, 0xf9, 0x04, 0xff, 0x00,
  0xef, 0xf6, 0xf8, 0xff, 0xf6, 0x00, 0xff, 0x01, 0x0b, 0xfd, 0x02, 0x04,
  0x00, 0x0a, 0xfc, 0x0a, 0xf1, 0xf6, 0xf1, 0xf6, 0xed, 0xf8, 0xf5, 0xe1,
  0xff, 0xf5, 0xfc, 0xff, 0xef, 0xfc, 0xfd, 0xfc, 0x04, 0xf7, 0xff, 0x00,
  0x00, 0x04, 0x00, 0xff, 0x03, 0xf3, 0x00, 0xf9, 0xf5, 0xfb, 0xfe, 0xfd,
  0x03, 0xf8, 0x00, 0xfc, 0xee, 0x00, 0x01, 0x03, 0x8d, 0xf9, 0xd2, 0xaf,
  0xb0, 0xc0, 0xb7, 0xa7, 0xe8, 0xfb, 0xfb, 0x00, 0xea, 0xf7, 0x01, 0xeb,
  0xe4, 0xfb, 0x01, 0x03, 0xea, 0xfe, 0x04, 0xec, 0xec, 0xfe, 0x01, 0x03,
  0xeb, 0xff, 0x05, 0xf1, 0xf9, 0xfa, 0x07, 0x08, 0xf2, 0x07, 0x06, 0xfd,
  0xf7, 0xff, 0x06, 0x09, 0xf4, 0x01, 0x04, 0xf8, 0xf4, 0xfe, 0x04, 0xff,
  0xeb, 0xce, 0xf6, 0xf3, 0xfb, 0xff, 0x0e, 0x1b, 0x08, 0x0c, 0x19, 0x0a,
  0xe2, 0xfd, 0xff, 0x00, 0xea, 0xfb, 0x04, 0xf2, 0xf5, 0xfb, 0x05, 0x08,
  0xf0, 0x01, 0x03, 0xf3, 0x02, 0x01, 0x05, 0x0a, 0xf3, 0x09, 0x06, 0xf7,
  0x00, 0x03, 0x08, 0x09, 0xf6, 0x03, 0x04, 0x00, 0xed, 0x03, 0x04, 0xf8,
  0xf2, 0xee, 0xfd, 0xf6, 0xf3, 0x00, 0xfc, 0x00, 0xfc, 0xff, 0x0b, 0xf7,
  0xf4, 0xf9, 0x02, 0x10, 0xfd, 0x06, 0x07, 0xf3, 0xf7, 0xfd, 0x0c, 0x08,
  0xf5, 0x06, 0x07, 0xfb, 0xf8, 0xfc, 0x0c, 0x0f, 0xf6, 0x07, 0x09, 0xff,
  0xfe, 0x00, 0x0c, 0x0c, 0x06, 0x0d, 0x06, 0x01, 0xf5, 0x10, 0xf9, 0x01,
  0xea, 0xf7, 0x0c, 0xf3, 0x0c, 0x02, 0x17, 0x03, 0x04, 0x0c, 0x0d, 0x09,
  0xf1, 0xff, 0x0e, 0x10, 0xfe, 0x07, 0x04, 0xf3, 0xf4, 0xfe, 0x0b, 0x09,
  0xef, 0x03, 0x06, 0xfb, 0x02, 0xfc, 0x0c, 0x07, 0xfc, 0x0f, 0x0a, 0x00,
  0xff, 0xff, 0x0a, 0x0b, 0xff, 0x0b, 0x07, 0x05, 0xe9, 0xef, 0xfe, 0xda,
  0xf1, 0xf0, 0x13, 0x01, 0xfc, 0x01, 0x19, 0x1d, 0x0e, 0x10, 0x17, 0x04,
  0xf3, 0x00, 0x04, 0x12, 0xfa, 0x14, 0x17, 0x07, 0xf2, 0xfe, 0x02, 0x07,
  0xef, 0x06, 0x02, 0xee, 0xf4, 0xfe, 0x07, 0x07, 0xf3, 0x03, 0x06, 0xfb,
  0xf9, 0xfe, 0x0a, 0x06, 0xf3, 0x09, 0x03, 0x01, 0xcc, 0xf5, 0xf4, 0xe8,
  0xdd, 0xe1, 0x05, 0xd7, 0xf3, 0x01, 0x0c, 0x0f, 0xe8, 0xff, 0x0e, 0xfd,
  0xf7, 0xff, 0x02, 0x05, 0xee, 0x07, 0x07, 0xf1, 0xf3, 0x01, 0x03, 0x08,
  0xf1, 0x00, 0x03, 0xf5, 0xf9, 0xff, 0x04, 0x04, 0xf1, 0x08, 0x03, 0xf1,
  0xfc, 0x01, 0x06, 0x07, 0xef, 0x04, 0x06, 0xf9, 0x06, 0x0c, 0x12, 0xff,
  0x0a, 0x0b, 0x02, 0x0d, 0xfb, 0x08, 0xfc, 0xff, 0x10, 0x02, 0x05, 0xff,
  0xfe, 0x0e, 0x06, 0x07, 0x0b, 0x02, 0x01, 0x02, 0xfe, 0x0b, 0xff, 0x01,
  0x10, 0x00, 0x01, 0xf9, 0x06, 0x08, 0x02, 0xfe, 0x08, 0xff, 0xfe, 0x02,
  0x09, 0x0a, 0xfe, 0x02, 0x18, 0x03, 0xfc, 0x03, 0xc7, 0x02, 0xde, 0xb5,
  0xca, 0x09, 0xa7, 0xb2, 0x02, 0x08, 0x01, 0xfd, 0x0a, 0x01, 0x03, 0xfa,
  0x02, 0x0c, 0x06, 0x0a, 0x0a, 0xfe, 0x02, 0xfe, 0x03, 0x06, 0x07, 0x00,
  0x0a, 0x05, 0xfd, 0xfe, 0x09, 0x0d, 0xfd, 0xff, 0x0c, 0x05, 0xff, 0x03,
  0x02, 0x0c, 0xff, 0xff, 0x15, 0x08, 0xfd, 0x03, 0xa8, 0xf6, 0xb1, 0xad,
  0x99, 0xac, 0x85, 0xad, 0xfb, 0x08, 0x00, 0xf8, 0xff, 0x03, 0xf8, 0x01,
  0xff, 0x0a, 0xf8, 0x01, 0x07, 0x04, 0xfe, 0x00, 0xfe, 0x0c, 0xff, 0xf8,
  0x08, 0x01, 0xfc, 0x03, 0xfc, 0x0c, 0x02, 0x00, 0x14, 0x06, 0x00, 0x07,
  0x05, 0x0b, 0x02, 0x05, 0x08, 0x05, 0xfe, 0x0d, 0x8d, 0xfa, 0xc0, 0xaf,
  0x99, 0x81, 0x8a, 0xc0, 0xf8, 0x0e, 0xfe, 0xf9, 0xff, 0xf8, 0xf8, 0x01,
  0x02, 0x08, 0x01, 0x01, 0x0e, 0xfe, 0x00, 0x07, 0xfc, 0x07, 0xff, 0xfa,
  0x09, 0xfd, 0xfa, 0xfb, 0xfd, 0x0a, 0x01, 0xfd, 0x11, 0xf8, 0xfa, 0x03,
  0x03, 0x0a, 0x05, 0xfd, 0x0e, 0x02, 0xfb, 0x05, 0xc9, 0x08, 0xdc, 0xd3,
  0xcf, 0x8d, 0xd9, 0x9d, 0x03, 0x0c, 0xfb, 0xf6, 0x05, 0x00, 0xff, 0xfb,
  0x01, 0x0b, 0xfc, 0x02, 0x0e, 0xf7, 0x01, 0x04, 0xfc, 0x09, 0xf9, 0x03,
  0x0f, 0x06, 0xfe, 0xf9, 0xfe, 0x08, 0xf9, 0xfc, 0x0d, 0xf4, 0xfe, 0x03,
  0x0b, 0x08, 0x03, 0xfe, 0x11, 0x00, 0xf9, 0x05, 0xdf, 0x0b, 0xee, 0xed,
  0xe4, 0xdb, 0xf0, 0xd6, 0x06, 0x09, 0x01, 0xfd, 0x0d, 0x00, 0x00, 0x04,
  0x05, 0x0b, 0xfb, 0xfd, 0x10, 0x03, 0x03, 0x02, 0x05, 0x0c, 0xfb, 0xfb,
  0x0c, 0xfc, 0xff, 0x02, 0x07, 0x0b, 0x01, 0xfe, 0x11, 0x04, 0x00, 0x00,
  0x07, 0x0b, 0x01, 0x00, 0x18, 0xfe, 0xfe, 0x02, 0x6c, 0xf4, 0xff, 0xff,
  0x70, 0xf4, 0xff, 0xff, 0x74, 0xf4, 0xff, 0xff, 0x78, 0xf4, 0xff, 0xff,
  0x12, 0xfd, 0xff, 0xff, 0x04, 0x00, 0x00, 0x00, 0x20, 0x00, 0x00, 0x00,
  0xf8, 0xff, 0xff, 0xff, 0xea, 0xff, 0xff, 0xff, 0xca, 0xff, 0xff, 0xff,
  0xca, 0xff, 0xff, 0xff, 0x28, 0x00, 0x00, 0x00, 0x08, 0x00, 0x00, 0x00,
  0xca, 0xff, 0xff, 0xff, 0xf8, 0xff, 0xff, 0xff, 0x3e, 0xfd, 0xff, 0xff,
  0x04, 0x00, 0x00, 0x00, 0x00, 0x02, 0x00, 0x00, 0xfa, 0xb7, 0xa8, 0xf8,
  0x41, 0xee, 0x28, 0x06, 0xe1, 0x01, 0xb9, 0xfa, 0x16, 0xdb, 0xbc, 0xc7,
  0x11, 0xe7, 0xce, 0x1f, 0xcd, 0xee, 0x11, 0x36, 0x9b, 0x27, 0x43, 0x85,
  0x53, 0x33, 0x3d, 0x40, 0x24, 0x4f, 0x49, 0x8c, 0x5d, 0x16, 0xe7, 0xbb,
  0xc0, 0xd5, 0x44, 0xd5, 0x41, 0x02, 0xc6, 0x20, 0x81, 0xb7, 0x1f, 0xbf,
  0x5b, 0x38, 0x29, 0xb8, 0xfd, 0x4e, 0x3b, 0xd3, 0x31, 0xae, 0xdc, 0xfe,
  0xf4, 0xf1, 0x09, 0x0c, 0x2c, 0x3c, 0x00, 0xf0, 0xdd, 0xef, 0xdb, 0x05,
  0xe5, 0x00, 0xf9, 0xed, 0xba, 0xe2, 0xc7, 0x18, 0xee, 0x0e, 0xde, 0x03,
  0xe1, 0x7f, 0xde, 0xf0, 0xcb, 0x0b, 0x25, 0xef, 0x1c, 0x1b, 0x2f, 0x13,
  0xe0, 0xf4, 0x0a, 0x1a, 0xe5, 0xe9, 0x3d, 0xcd, 0xf7, 0xd8, 0xf2, 0xf8,
  0xf1, 0xe5, 0x3d, 0x02, 0xfc, 0x0c, 0x02, 0xee, 0xf6, 0x28, 0xfa, 0xde,
  0x03, 0xf4, 0xfc, 0x0d, 0x92, 0xa6, 0x23, 0xfc, 0x2e, 0x51, 0x06, 0x2b,
  0x81, 0xeb, 0x04, 0xc9, 0xe4, 0x02, 0x3c, 0xe1, 0xf1, 0x28, 0xe9, 0xc5,
  0xed, 0xe4, 0xc6, 0xf6, 0x02, 0x37, 0x4d, 0x23, 0x36, 0xff, 0xda, 0x0f,
  0xf6, 0xe9, 0x3d, 0x2b, 0x4b, 0x36, 0x11, 0x20, 0xf8, 0xb5, 0xed, 0x0f,
  0x19, 0x09, 0xe3, 0x23, 0x01, 0x2f, 0x12, 0xdd, 0xea, 0x0f, 0xef, 0x28,
  0xe9, 0xd8, 0xfe, 0x33, 0x25, 0x23, 0x1d, 0x0f, 0xc6, 0xe5, 0xb7, 0xcc,
  0xd5, 0xd2, 0xf5, 0x00, 0x03, 0x43, 0xbb, 0x70, 0xdc, 0xf9, 0x1e, 0x36,
  0xeb, 0x7f, 0x56, 0x16, 0x10, 0x3c, 0x31, 0xea, 0xfd, 0x18, 0xf4, 0x32,
  0xb2, 0x46, 0x4e, 0x0f, 0x05, 0xd8, 0xcc, 0x32, 0x01, 0xd8, 0x06, 0x3f,
  0xe7, 0xb8, 0xf8, 0xed, 0xb9, 0x0d, 0x38, 0x27, 0xe9, 0x51, 0xc0, 0xf7,
  0xd1, 0xbe, 0x03, 0xe0, 0x05, 0x15, 0x1d, 0x15, 0x14, 0xe4, 0x21, 0x05,
  0x81, 0xc7, 0x1a, 0xed, 0xfc, 0x11, 0x21, 0xdc, 0x22, 0x1b, 0xe1, 0xcd,
  0xde, 0x21, 0xf7, 0x05, 0xf1, 0x0a, 0x54, 0xe2, 0x0a, 0xf4, 0xed, 0xe8,
  0xaf, 0x09, 0x08, 0xe9, 0xff, 0xbb, 0xdf, 0xda, 0x03, 0x26, 0x17, 0x32,
  0x3a, 0x05, 0xba, 0x14, 0x17, 0x48, 0x02, 0x27, 0x0f, 0xdb, 0xbc, 0xe5,
  0x0e, 0x3c, 0x1d, 0xf9, 0xdb, 0x0e, 0xda, 0xbb, 0xfd, 0x1e, 0x20, 0xf7,
  0xec, 0xe2, 0xd9, 0xc8, 0xe9, 0xf6, 0x09, 0xa2, 0xf5, 0x29, 0x0d, 0xd8,
  0xe5, 0xda, 0xca, 0x9f, 0xf0, 0x3d, 0x0b, 0xc0, 0xf1, 0x04, 0x46, 0xf6,
  0x7f, 0xc6, 0x9b, 0xd7, 0xf7, 0x0a, 0x17, 0xc8, 0xfc, 0xf1, 0xc4, 0xe7,
  0xe7, 0x3d, 0x3e, 0x20, 0x17, 0xc0, 0xef, 0x9a, 0xd4, 0x24, 0x2c, 0xf5,
  0xd8, 0xcb, 0xc5, 0x92, 0xc3, 0x32, 0xed, 0xe4, 0x0d, 0x2b, 0x0b, 0xb5,
  0xbf, 0x03, 0xea, 0x0e, 0x3d, 0xf4, 0x33, 0xde, 0x0a, 0xc2, 0xee, 0x7f,
  0x1e, 0x28, 0xf8, 0x0d, 0x0e, 0xdc, 0xe7, 0x0d, 0x15, 0x3e, 0x07, 0x25,
  0x23, 0xc1, 0x3f, 0xd4, 0xe4, 0xfa, 0x0c, 0x2c, 0x06, 0xb0, 0xdc, 0x19,
  0x47, 0x01, 0x17, 0x30, 0x28, 0xd3, 0xd1, 0x74, 0x17, 0xd6, 0x02, 0xfb,
  0x2b, 0xd4, 0x20, 0xfd, 0xca, 0xfa, 0xe0, 0xfc, 0x18, 0xfd, 0x06, 0xd2,
  0x0a, 0xe2, 0x41, 0xe0, 0x13, 0xed, 0x04, 0xc7, 0x02, 0x32, 0x0c, 0x38,
  0x27, 0x78, 0x32, 0xaf, 0xfb, 0xb1, 0x4b, 0x22, 0xee, 0x72, 0x55, 0x58,
  0x3e, 0x18, 0xf8, 0xf8, 0xf8, 0x9e, 0xd5, 0x4c, 0x4f, 0x31, 0x01, 0xda,
  0xcb, 0xad, 0x55, 0xe0, 0x39, 0x30, 0x49, 0x28, 0x8f, 0x92, 0xe8, 0x10,
  0x1e, 0x07, 0x5c, 0xf8, 0x81, 0xbf, 0x23, 0x1d, 0x29, 0xb0, 0xe0, 0x03,
  0xfe, 0x59, 0xee, 0xc6, 0xd8, 0xb5, 0xb2, 0x4c, 0xfe, 0x6f, 0x36, 0x07,
  0x27, 0x09, 0xdf, 0x26, 0x4a, 0xff, 0xff, 0xff, 0x04, 0x00, 0x00, 0x00,
  0x08, 0x00, 0x00, 0x00, 0xff, 0xff, 0xff, 0xff, 0x20, 0x01, 0x00, 0x00,
  0x5e, 0xff, 0xff, 0xff, 0x04, 0x00, 0x00, 0x00, 0x08, 0x00, 0x00, 0x00,
  0x20, 0x00, 0x00, 0x00, 0x20, 0x00, 0x00, 0x00, 0xdc, 0xf6, 0xff, 0xff,
  0xe0, 0xf6, 0xff, 0xff, 0x0f, 0x00, 0x00, 0x00, 0x4d, 0x4c, 0x49, 0x52,
  0x20, 0x43, 0x6f, 0x6e, 0x76, 0x65, 0x72, 0x74, 0x65, 0x64, 0x2e, 0x00,
  0x01, 0x00, 0x00, 0x00, 0x14, 0x00, 0x00, 0x00, 0x00, 0x00, 0x0e, 0x00,
  0x18, 0x00, 0x14, 0x00, 0x10, 0x00, 0x0c, 0x00, 0x08, 0x00, 0x04, 0x00,
  0x0e, 0x00, 0x00, 0x00, 0x14, 0x00, 0x00, 0x00, 0x1c, 0x00, 0x00, 0x00,
  0xc8, 0x01, 0x00, 0x00, 0xcc, 0x01, 0x00, 0x00, 0xd0, 0x01, 0x00, 0x00,
  0x04, 0x00, 0x00, 0x00, 0x6d, 0x61, 0x69, 0x6e, 0x00, 0x00, 0x00, 0x00,
  0x06, 0x00, 0x00, 0x00, 0x74, 0x01, 0x00, 0x00, 0x10, 0x01, 0x00, 0x00,
  0xac, 0x00, 0x00, 0x00, 0x84, 0x00, 0x00, 0x00, 0x40, 0x00, 0x00, 0x00,
  0x04, 0x00, 0x00, 0x00, 0x12, 0xff, 0xff, 0xff, 0x1c, 0x00, 0x00, 0x00,
  0x00, 0x00, 0x00, 0x09, 0x1c, 0x00, 0x00, 0x00, 0x20, 0x00, 0x00, 0x00,
  0x05, 0x00, 0x00, 0x00, 0x00, 0x00, 0x06, 0x00, 0x08, 0x00, 0x04, 0x00,
  0x06, 0x00, 0x00, 0x00, 0x00, 0x00, 0x80, 0x3f, 0x01, 0x00, 0x00, 0x00,
  0x0c, 0x00, 0x00, 0x00, 0x01, 0x00, 0x00, 0x00, 0x0b, 0x00, 0x00, 0x00,
  0x4a, 0xff, 0xff, 0xff, 0x14, 0x00, 0x00, 0x00, 0x00, 0x00, 0x00, 0x08,
  0x10, 0x00, 0x00, 0x00, 0x14, 0x00, 0x00, 0x00, 0x04, 0x00, 0x00, 0x00,
  0xa0, 0xf7, 0xff, 0xff, 0x01, 0x00, 0x00, 0x00, 0x0b, 0x00, 0x00, 0x00,
  0x03, 0x00, 0x00, 0x00, 0x08, 0x00, 0x00, 0x00, 0x09, 0x00, 0x00, 0x00,
  0x0a, 0x00, 0x00, 0x00, 0x00, 0x00, 0x0a, 0x00, 0x10, 0x00, 0x0c, 0x00,
  0x08, 0x00, 0x04, 0x00, 0x0a, 0x00, 0x00, 0x00, 0x0c, 0x00, 0x00, 0x00,
  0x10, 0x00, 0x00, 0x00, 0x03, 0x00, 0x00, 0x00, 0x01, 0x00, 0x00, 0x00,
  0x08, 0x00, 0x00, 0x00, 0x02, 0x00, 0x00, 0x00, 0x07, 0x00, 0x00, 0x00,
  0x02, 0x00, 0x00, 0x00, 0xae, 0xff, 0xff, 0xff, 0x24, 0x00, 0x00, 0x00,
  0x00, 0x00, 0x00, 0x05, 0x34, 0x00, 0x00, 0x00, 0x38, 0x00, 0x00, 0x00,
  0x02, 0x00, 0x00, 0x00, 0x00, 0x00, 0x0e, 0x00, 0x18, 0x00, 0x17, 0x00,
  0x10, 0x00, 0x0c, 0x00, 0x08, 0x00, 0x04, 0x00, 0x0e, 0x00, 0x00, 0x00,
  0x02, 0x00, 0x00, 0x00, 0x02, 0x00, 0x00, 0x00, 0x02, 0x00, 0x00, 0x00,
  0x02, 0x00, 0x00, 0x00, 0x00, 0x00, 0x00, 0x01, 0x01, 0x00, 0x00, 0x00,
  0x07, 0x00, 0x00, 0x00, 0x01, 0x00, 0x00, 0x00, 0x06, 0x00, 0x00, 0x00,
  0x00, 0x00, 0x0e, 0x00, 0x18, 0x00, 0x14, 0x00, 0x10, 0x00, 0x0c, 0x00,
  0x0b, 0x00, 0x04, 0x00, 0x0e, 0x00, 0x00, 0x00, 0x20, 0x00, 0x00, 0x00,
  0x00, 0x00, 0x00, 0x01, 0x2c, 0x00, 0x00, 0x00, 0x30, 0x00, 0x00, 0x00,
  0x01, 0x00, 0x00, 0x00, 0x0c, 0x00, 0x14, 0x00, 0x13, 0x00, 0x0c, 0x00,
  0x08, 0x00, 0x07, 0x00, 0x0c, 0x00, 0x00, 0x00, 0x00, 0x00, 0x00, 0x01,
  0x02, 0x00, 0x00, 0x00, 0x02, 0x00, 0x00, 0x00, 0x00, 0x00, 0x00, 0x01,
  0x01, 0x00, 0x00, 0x00, 0x06, 0x00, 0x00, 0x00, 0x03, 0x00, 0x00, 0x00,
  0x05, 0x00, 0x00, 0x00, 0x03, 0x00, 0x00, 0x00, 0x04, 0x00, 0x00, 0x00,
  0x00, 0x00, 0x0e, 0x00, 0x14, 0x00, 0x00, 0x00, 0x10, 0x00, 0x0c, 0x00,
  0x0b, 0x00, 0x04, 0x00, 0x0e, 0x00, 0x00, 0x00, 0x18, 0x00, 0x00, 0x00,
  0x00, 0x00, 0x00, 0x4a, 0x18, 0x00, 0x00, 0x00, 0x1c, 0x00, 0x00, 0x00,
  0x08, 0x00, 0x08, 0x00, 0x00, 0x00, 0x07, 0x00, 0x08, 0x00, 0x00, 0x00,
  0x00, 0x00, 0x00, 0x01, 0x01, 0x00, 0x00, 0x00, 0x05, 0x00, 0x00, 0x00,
  0x02, 0x00, 0x00, 0x00, 0x00, 0x00, 0x00, 0x00, 0x01, 0x00, 0x00, 0x00,
  0x01, 0x00, 0x00, 0x00, 0x0c, 0x00, 0x00, 0x00, 0x01, 0x00, 0x00, 0x00,
  0x00, 0x00, 0x00, 0x00, 0x0d, 0x00, 0x00, 0x00, 0x50, 0x07, 0x00, 0x00,
  0xec, 0x06, 0x00, 0x00, 0x98, 0x06, 0x00, 0x00, 0x88, 0x05, 0x00, 0x00,
  0x8c, 0x04, 0x00, 0x00, 0xf0, 0x03, 0x00, 0x00, 0x24, 0x03, 0x00, 0x00,
  0x98, 0x02, 0x00, 0x00, 0x24, 0x02, 0x00, 0x00, 0x78, 0x01, 0x00, 0x00,
  0x1c, 0x01, 0x00, 0x00, 0x80, 0x00, 0x00, 0x00, 0x04, 0x00, 0x00, 0x00,
  0xf8, 0xf8, 0xff, 0xff, 0x18, 0x00, 0x00, 0x00, 0x20, 0x00, 0x00, 0x00,
  0x40, 0x00, 0x00, 0x00, 0x0d, 0x00, 0x00, 0x00, 0x00, 0x00, 0x00, 0x09,
  0x54, 0x00, 0x00, 0x00, 0x02, 0x00, 0x00, 0x00, 0xff, 0xff, 0xff, 0xff,
  0x04, 0x00, 0x00, 0x00, 0xdc, 0xf8, 0xff, 0xff, 0x08, 0x00, 0x00, 0x00,
  0x14, 0x00, 0x00, 0x00, 0x01, 0x00, 0x00, 0x00, 0x80, 0xff, 0xff, 0xff,
  0xff, 0xff, 0xff, 0xff, 0x00, 0x00, 0x00, 0x00, 0x01, 0x00, 0x00, 0x00,
  0x00, 0x00, 0x80, 0x3b, 0x19, 0x00, 0x00, 0x00, 0x53, 0x74, 0x61, 0x74,
  0x65, 0x66, 0x75, 0x6c, 0x50, 0x61, 0x72, 0x74, 0x69, 0x74, 0x69, 0x6f,
  0x6e, 0x65, 0x64, 0x43, 0x61, 0x6c, 0x6c, 0x3a, 0x30, 0x00, 0x00, 0x00,
  0x02, 0x00, 0x00, 0x00, 0x01, 0x00, 0x00, 0x00, 0x04, 0x00, 0x00, 0x00,
  0x70, 0xf9, 0xff, 0xff, 0x18, 0x00, 0x00, 0x00, 0x20, 0x00, 0x00, 0x00,
  0x40, 0x00, 0x00, 0x00, 0x0c, 0x00, 0x00, 0x00, 0x00, 0x00, 0x00, 0x09,
  0x74, 0x00, 0x00, 0x00, 0x02, 0x00, 0x00, 0x00, 0xff, 0xff, 0xff, 0xff,
  0x04, 0x00, 0x00, 0x00, 0x54, 0xf9, 0xff, 0xff, 0x08, 0x00, 0x00, 0x00,
  0x14, 0x00, 0x00, 0x00, 0x01, 0x00, 0x00, 0x00, 0x5c, 0x00, 0x00, 0x00,
  0x00, 0x00, 0x00, 0x00, 0x00, 0x00, 0x00, 0x00, 0x01, 0x00, 0x00, 0x00,
  0xdc, 0xbe, 0x83, 0x3d, 0x3a, 0x00, 0x00, 0x00, 0x6d, 0x6f, 0x64, 0x65,
  0x6c, 0x5f, 0x31, 0x2f, 0x71, 0x75, 0x61, 0x6e, 0x74, 0x5f, 0x64, 0x65,
  0x6e, 0x73, 0x65, 0x5f, 0x31, 0x2f, 0x4d, 0x61, 0x74, 0x4d, 0x75, 0x6c,
  0x3b, 0x6d, 0x6f, 0x64, 0x65, 0x6c, 0x5f, 0x31, 0x2f, 0x71, 0x75, 0x61,
  0x6e, 0x74, 0x5f, 0x64, 0x65, 0x6e, 0x73, 0x65, 0x5f, 0x31, 0x2f, 0x42,
  0x69, 0x61, 0x73, 0x41, 0x64, 0x64, 0x00, 0x00, 0x02, 0x00, 0x00, 0x00,
  0x01, 0x00, 0x00, 0x00, 0x04, 0x00, 0x00, 0x00, 0x62, 0xfa, 0xff, 0xff,
  0x14, 0x00, 0x00, 0x00, 0x34, 0x00, 0x00, 0x00, 0x0b, 0x00, 0x00, 0x00,
  0x00, 0x00, 0x00, 0x02, 0x3c, 0x00, 0x00, 0x00, 0xdc, 0xf9, 0xff, 0xff,
  0x08, 0x00, 0x00, 0x00, 0x14, 0x00, 0x00, 0x00, 0x01, 0x00, 0x00, 0x00,
  0x00, 0x00, 0x00, 0x00, 0x00, 0x00, 0x00, 0x00, 0x00, 0x00, 0x00, 0x00,
  0x01, 0x00, 0x00, 0x00, 0x44, 0x6b, 0x27, 0x3a, 0x0c, 0x00, 0x00, 0x00,
  0x64, 0x65, 0x6e, 0x73, 0x65, 0x5f, 0x31, 0x2f, 0x62, 0x69, 0x61, 0x73,
  0x00, 0x00, 0x00, 0x00, 0x01, 0x00, 0x00, 0x00, 0x04, 0x00, 0x00, 0x00,
  0xba, 0xfa, 0xff, 0xff, 0x14, 0x00, 0x00, 0x00, 0x34, 0x00, 0x00, 0x00,
  0x0a, 0x00, 0x00, 0x00, 0x00, 0x00, 0x00, 0x09, 0x88, 0x00, 0x00, 0x00,
  0x34, 0xfa, 0xff, 0xff, 0x08, 0x00, 0x00, 0x00, 0x14, 0x00, 0x00, 0x00,
  0x01, 0x00, 0x00, 0x00, 0x00, 0x00, 0x00, 0x00, 0x00, 0x00, 0x00, 0x00,
  0x00, 0x00, 0x00, 0x00, 0x01, 0x00, 0x00, 0x00, 0x48, 0x91, 0x0e, 0x3d,
  0x59, 0x00, 0x00, 0x00, 0x6d, 0x6f, 0x64, 0x65, 0x6c, 0x5f, 0x31, 0x2f,
  0x71, 0x75, 0x61, 0x6e, 0x74, 0x5f, 0x64, 0x65, 0x6e, 0x73, 0x65, 0x5f,
  0x31, 0x2f, 0x4d, 0x61, 0x74, 0x4d, 0x75, 0x6c, 0x3b, 0x6d, 0x6f, 0x64,
  0x65, 0x6c, 0x5f, 0x31, 0x2f, 0x71, 0x75, 0x61, 0x6e, 0x74, 0x5f, 0x64,
  0x65, 0x6e, 0x73, 0x65, 0x5f, 0x31, 0x2f, 0x4c, 0x61, 0x73, 0x74, 0x56,
  0x61, 0x6c, 0x75, 0x65, 0x51, 0x75, 0x61, 0x6e, 0x74, 0x2f, 0x46, 0x61,
  0x6b, 0x65, 0x51, 0x75, 0x61, 0x6e, 0x74, 0x57, 0x69, 0x74, 0x68, 0x4d,
  0x69, 0x6e, 0x4d, 0x61, 0x78, 0x56, 0x61, 0x72, 0x73, 0x00, 0x00, 0x00,
  0x02, 0x00, 0x00, 0x00, 0x04, 0x00, 0x00, 0x00, 0x20, 0x01, 0x00, 0x00,
  0x08, 0xfb, 0xff, 0xff, 0x18, 0x00, 0x00, 0x00, 0x20, 0x00, 0x00, 0x00,
  0x3c, 0x00, 0x00, 0x00, 0x09, 0x00, 0x00, 0x00, 0x00, 0x00, 0x00, 0x09,
  0x4c, 0x00, 0x00, 0x00, 0x02, 0x00, 0x00, 0x00, 0xff, 0xff, 0xff, 0xff,
  0x20, 0x01, 0x00, 0x00, 0xec, 0xfa, 0xff, 0xff, 0x08, 0x00, 0x00, 0x00,
  0x10, 0x00, 0x00, 0x00, 0x01, 0x00, 0x00, 0x00, 0xea, 0xff, 0xff, 0xff,
  0xff, 0xff, 0xff, 0xff, 0x01, 0x00, 0x00, 0x00, 0xec, 0x4f, 0x96, 0x3c,
  0x17, 0x00, 0x00, 0x00, 0x6d, 0x6f, 0x64, 0x65, 0x6c, 0x5f, 0x31, 0x2f,
  0x66, 0x6c, 0x61, 0x74, 0x74, 0x65, 0x6e, 0x2f, 0x52, 0x65, 0x73, 0x68,
  0x61, 0x70, 0x65, 0x00, 0x02, 0x00, 0x00, 0x00, 0x01, 0x00, 0x00, 0x00,
  0x20, 0x01, 0x00, 0x00, 0x78, 0xfb, 0xff, 0xff, 0x18, 0x00, 0x00, 0x00,
  0x28, 0x00, 0x00, 0x00, 0x44, 0x00, 0x00, 0x00, 0x08, 0x00, 0x00, 0x00,
  0x00, 0x00, 0x00, 0x09, 0x5c, 0x00, 0x00, 0x00, 0x04, 0x00, 0x00, 0x00,
  0xff, 0xff, 0xff, 0xff, 0x06, 0x00, 0x00, 0x00, 0x06, 0x00, 0x00, 0x00,
  0x08, 0x00, 0x00, 0x00, 0x64, 0xfb, 0xff, 0xff, 0x08, 0x00, 0x00, 0x00,
  0x10, 0x00, 0x00, 0x00, 0x01, 0x00, 0x00, 0x00, 0xea, 0xff, 0xff, 0xff,
  0xff, 0xff, 0xff, 0xff, 0x01, 0x00, 0x00, 0x00, 0xec, 0x4f, 0x96, 0x3c,
  0x1d, 0x00, 0x00, 0x00, 0x6d, 0x6f, 0x64, 0x65, 0x6c, 0x5f, 0x31, 0x2f,
  0x6d, 0x61, 0x78, 0x5f, 0x70, 0x6f, 0x6f, 0x6c, 0x69, 0x6e, 0x67, 0x32,
  0x64, 0x2f, 0x4d, 0x61, 0x78, 0x50, 0x6f, 0x6f, 0x6c, 0x00, 0x00, 0x00,
  0x04, 0x00, 0x00, 0x00, 0x01, 0x00, 0x00, 0x00, 0x06, 0x00, 0x00, 0x00,
  0x06, 0x00, 0x00, 0x00, 0x08, 0x00, 0x00, 0x00, 0x00, 0xfc, 0xff, 0xff,
  0x18, 0x00, 0x00, 0x00, 0x28, 0x00, 0x00, 0x00, 0x44, 0x00, 0x00, 0x00,
  0x07, 0x00, 0x00, 0x00, 0x00, 0x00, 0x00, 0x09, 0x9c, 0x00, 0x00, 0x00,
  0x04, 0x00, 0x00, 0x00, 0xff, 0xff, 0xff, 0xff, 0x0d, 0x00, 0x00, 0x00,
  0x0d, 0x00, 0x00, 0x00, 0x08, 0x00, 0x00, 0x00, 0xec, 0xfb, 0xff, 0xff,
  0x08, 0x00, 0x00, 0x00, 0x10, 0x00, 0x00, 0x00, 0x01, 0x00, 0x00, 0x00,
  0xea, 0xff, 0xff, 0xff, 0xff, 0xff, 0xff, 0xff, 0x01, 0x00, 0x00, 0x00,
  0xec, 0x4f, 0x96, 0x3c, 0x5f, 0x00, 0x00, 0x00, 0x6d, 0x6f, 0x64, 0x65,
  0x6c, 0x5f, 0x31, 0x2f, 0x71, 0x75, 0x61, 0x6e, 0x74, 0x5f, 0x63, 0x6f,
  0x6e, 0x76, 0x32, 0x64, 0x2f, 0x52, 0x65, 0x6c, 0x75, 0x3b, 0x6d, 0x6f,
  0x64, 0x65, 0x6c, 0x5f, 0x31, 0x2f, 0x71, 0x75, 0x61, 0x6e, 0x74, 0x5f,
  0x63, 0x6f, 0x6e, 0x76, 0x32, 0x64, 0x2f, 0x42, 0x69, 0x61, 0x73, 0x41,
  0x64, 0x64, 0x3b, 0x6d, 0x6f, 0x64, 0x65, 0x6c, 0x5f, 0x31, 0x2f, 0x71,
  0x75, 0x61, 0x6e, 0x74, 0x5f, 0x63, 0x6f, 0x6e, 0x76, 0x32, 0x64, 0x2f,
  0x43, 0x6f, 0x6e, 0x76, 0x32, 0x44, 0x3b, 0x63, 0x6f, 0x6e, 0x76, 0x32,
  0x64, 0x2f, 0x62, 0x69, 0x61, 0x73, 0x31, 0x00, 0x04, 0x00, 0x00, 0x00,
  0x01, 0x00, 0x00, 0x00, 0x0d, 0x00, 0x00, 0x00, 0x0d, 0x00, 0x00, 0x00,
  0x08, 0x00, 0x00, 0x00, 0xc8, 0xfc, 0xff, 0xff, 0x18, 0x00, 0x00, 0x00,
  0x28, 0x00, 0x00, 0x00, 0x44, 0x00, 0x00, 0x00, 0x06, 0x00, 0x00, 0x00,
  0x00, 0x00, 0x00, 0x09, 0x6c, 0x00, 0x00, 0x00, 0x04, 0x00, 0x00, 0x00,
  0xff, 0xff, 0xff, 0xff, 0x20, 0x00, 0x00, 0x00, 0x20, 0x00, 0x00, 0x00,
  0x01, 0x00, 0x00, 0x00, 0xb4, 0xfc, 0xff, 0xff, 0x08, 0x00, 0x00, 0x00,
  0x10, 0x00, 0x00, 0x00, 0x01, 0x00, 0x00, 0x00, 0x80, 0xff, 0xff, 0xff,
  0xff, 0xff, 0xff, 0xff, 0x01, 0x00, 0x00, 0x00, 0x3c, 0x3c, 0x00, 0x3f,
  0x2d, 0x00, 0x00, 0x00, 0x6d, 0x6f, 0x64, 0x65, 0x6c, 0x5f, 0x31, 0x2f,
  0x72, 0x65, 0x73, 0x69, 0x7a, 0x69, 0x6e, 0x67, 0x2f, 0x72, 0x65, 0x73,
  0x69, 0x7a, 0x65, 0x2f, 0x52, 0x65, 0x73, 0x69, 0x7a, 0x65, 0x4e, 0x65,
  0x61, 0x72, 0x65, 0x73, 0x74, 0x4e, 0x65, 0x69, 0x67, 0x68, 0x62, 0x6f,
  0x72, 0x00, 0x00, 0x00, 0x04, 0x00, 0x00, 0x00, 0x01, 0x00, 0x00, 0x00,
  0x20, 0x00, 0x00, 0x00, 0x20, 0x00, 0x00, 0x00, 0x01, 0x00, 0x00, 0x00,
  0xba, 0xfd, 0xff, 0xff, 0x14, 0x00, 0x00, 0x00, 0x84, 0x00, 0x00, 0x00,
  0x05, 0x00, 0x00, 0x00, 0x00, 0x00, 0x00, 0x02, 0xdc, 0x00, 0x00, 0x00,
  0x34, 0xfd, 0xff, 0xff, 0x08, 0x00, 0x00, 0x00, 0x48, 0x00, 0x00, 0x00,
  0x08, 0x00, 0x00, 0x00, 0x00, 0x00, 0x00, 0x00, 0x00, 0x00, 0x00, 0x00,
  0x00, 0x00, 0x00, 0x00, 0x00, 0x00, 0x00, 0x00, 0x00, 0x00, 0x00, 0x00,
  0x00, 0x00, 0x00, 0x00, 0x00, 0x00, 0x00, 0x00, 0x00, 0x00, 0x00, 0x00,
  0x00, 0x00, 0x00, 0x00, 0x00, 0x00, 0x00, 0x00, 0x00, 0x00, 0x00, 0x00,
  0x00, 0x00, 0x00, 0x00, 0x00, 0x00, 0x00, 0x00, 0x00, 0x00, 0x00, 0x00,
  0x00, 0x00, 0x00, 0x00, 0x00, 0x00, 0x00, 0x00, 0x08, 0x00, 0x00, 0x00,
  0xea, 0x21, 0x36, 0x3a, 0xb7, 0x9a, 0x8a, 0x3a, 0x75, 0x81, 0x7f, 0x3a,
  0x6d, 0x87, 0x5d, 0x3a, 0x79, 0xd5, 0x84, 0x3a, 0xad, 0xf8, 0x2a, 0x3a,
  0xcf, 0xe7, 0x84, 0x3a, 0x22, 0x89, 0x32, 0x3a, 0x5e, 0x00, 0x00, 0x00,
  0x6d, 0x6f, 0x64, 0x65, 0x6c, 0x5f, 0x31, 0x2f, 0x71, 0x75, 0x61, 0x6e,
  0x74, 0x5f, 0x63, 0x6f, 0x6e, 0x76, 0x32, 0x64, 0x2f, 0x52, 0x65, 0x6c,
  0x75, 0x3b, 0x6d, 0x6f, 0x64, 0x65, 0x6c, 0x5f, 0x31, 0x2f, 0x71, 0x75,
  0x61, 0x6e, 0x74, 0x5f, 0x63, 0x6f, 0x6e, 0x76, 0x32, 0x64, 0x2f, 0x42,
  0x69, 0x61, 0x73, 0x41, 0x64, 0x64, 0x3b, 0x6d, 0x6f, 0x64, 0x65, 0x6c,
  0x5f, 0x31, 0x2f, 0x71, 0x75, 0x61, 0x6e, 0x74, 0x5f, 0x63, 0x6f, 0x6e,
  0x76, 0x32, 0x64, 0x2f, 0x43, 0x6f, 0x6e, 0x76, 0x32, 0x44, 0x3b, 0x63,
  0x6f, 0x6e, 0x76, 0x32, 0x64, 0x2f, 0x62, 0x69, 0x61, 0x73, 0x00, 0x00,
  0x01, 0x00, 0x00, 0x00, 0x08, 0x00, 0x00, 0x00, 0xb2, 0xfe, 0xff, 0xff,
  0x14, 0x00, 0x00, 0x00, 0x88, 0x00, 0x00, 0x00, 0x04, 0x00, 0x00, 0x00,
  0x00, 0x00, 0x00, 0x09, 0xe4, 0x00, 0x00, 0x00, 0x2c, 0xfe, 0xff, 0xff,
  0x08, 0x00, 0x00, 0x00, 0x4c, 0x00, 0x00, 0x00, 0x08, 0x00, 0x00, 0x00,
  0x00, 0x00, 0x00, 0x00, 0x00, 0x00, 0x00, 0x00, 0x00, 0x00, 0x00, 0x00,
  0x00, 0x00, 0x00, 0x00, 0x00, 0x00, 0x00, 0x00, 0x00, 0x00, 0x00, 0x00,
  0x00, 0x00, 0x00, 0x00, 0x00, 0x00, 0x00, 0x00, 0x00, 0x00, 0x00, 0x00,
  0x00, 0x00, 0x00, 0x00, 0x00, 0x00, 0x00, 0x00, 0x00, 0x00, 0x00, 0x00,
  0x00, 0x00, 0x00, 0x00, 0x00, 0x00, 0x00, 0x00, 0x00, 0x00, 0x00, 0x00,
  0x00, 0x00, 0x00, 0x00, 0x00, 0x00, 0x00, 0x00, 0x08, 0x00, 0x00, 0x00,
  0x5d, 0xcc, 0xb5, 0x3a, 0x9c, 0x59, 0x0a, 0x3b, 0x71, 0x09, 0xff, 0x3a,
  0x5f, 0x1f, 0xdd, 0x3a, 0x14, 0x97, 0x04, 0x3b, 0x5e, 0xa8, 0xaa, 0x3a,
  0x61, 0xa9, 0x04, 0x3b, 0x45, 0x35, 0xb2, 0x3a, 0x61, 0x00, 0x00, 0x00,
  0x6d, 0x6f, 0x64, 0x65, 0x6c, 0x5f, 0x31, 0x2f, 0x71, 0x75, 0x61, 0x6e,
  0x74, 0x5f, 0x63, 0x6f, 0x6e, 0x76, 0x32, 0x64, 0x2f, 0x43, 0x6f, 0x6e,
  0x76, 0x32, 0x44, 0x3b, 0x6d, 0x6f, 0x64, 0x65, 0x6c, 0x5f, 0x31, 0x2f,
  0x71, 0x75, 0x61, 0x6e, 0x74, 0x5f, 0x63, 0x6f, 0x6e, 0x76, 0x32, 0x64,
  0x2f, 0x4c, 0x61, 0x73, 0x74, 0x56, 0x61, 0x6c, 0x75, 0x65, 0x51, 0x75,
  0x61, 0x6e, 0x74, 0x2f, 0x46, 0x61, 0x6b, 0x65, 0x51, 0x75, 0x61, 0x6e,
  0x74, 0x57, 0x69, 0x74, 0x68, 0x4d, 0x69, 0x6e, 0x4d, 0x61, 0x78, 0x56,
  0x61, 0x72, 0x73, 0x50, 0x65, 0x72, 0x43, 0x68, 0x61, 0x6e, 0x6e, 0x65,
  0x6c, 0x00, 0x00, 0x00, 0x04, 0x00, 0x00, 0x00, 0x08, 0x00, 0x00, 0x00,
  0x08, 0x00, 0x00, 0x00, 0x08, 0x00, 0x00, 0x00, 0x01, 0x00, 0x00, 0x00,
  0xbe, 0xff, 0xff, 0xff, 0x14, 0x00, 0x00, 0x00, 0x14, 0x00, 0x00, 0x00,
  0x03, 0x00, 0x00, 0x00, 0x00, 0x00, 0x00, 0x02, 0x24, 0x00, 0x00, 0x00,
  0xb0, 0xff, 0xff, 0xff, 0x15, 0x00, 0x00, 0x00, 0x6d, 0x6f, 0x64, 0x65,
  0x6c, 0x5f, 0x31, 0x2f, 0x66, 0x6c, 0x61, 0x74, 0x74, 0x65, 0x6e, 0x2f,
  0x43, 0x6f, 0x6e, 0x73, 0x74, 0x00, 0x00, 0x00, 0x01, 0x00, 0x00, 0x00,
  0x02, 0x00, 0x00, 0x00, 0x00, 0x00, 0x0e, 0x00, 0x18, 0x00, 0x14, 0x00,
  0x13, 0x00, 0x0c, 0x00, 0x08, 0x00, 0x04, 0x00, 0x0e, 0x00, 0x00, 0x00,
  0x18, 0x00, 0x00, 0x00, 0x18, 0x00, 0x00, 0x00, 0x02, 0x00, 0x00, 0x00,
  0x00, 0x00, 0x00, 0x02, 0x30, 0x00, 0x00, 0x00, 0x04, 0x00, 0x04, 0x00,
  0x04, 0x00, 0x00, 0x00, 0x1c, 0x00, 0x00, 0x00, 0x6d, 0x6f, 0x64, 0x65,
  0x6c, 0x5f, 0x31, 0x2f, 0x72, 0x65, 0x73, 0x69, 0x7a, 0x69, 0x6e, 0x67,
  0x2f, 0x72, 0x65, 0x73, 0x69, 0x7a, 0x65, 0x2f, 0x73, 0x69, 0x7a, 0x65,
  0x00, 0x00, 0x00, 0x00, 0x01, 0x00, 0x00, 0x00, 0x02, 0x00, 0x00, 0x00,
  0x14, 0x00, 0x1c, 0x00, 0x18, 0x00, 0x17, 0x00, 0x10, 0x00, 0x0c, 0x00,
  0x08, 0x00, 0x00, 0x00, 0x00, 0x00, 0x04, 0x00, 0x14, 0x00, 0x00, 0x00,
  0x18, 0x00, 0x00, 0x00, 0x34, 0x00, 0x00, 0x00, 0x54, 0x00, 0x00, 0x00,
  0x01, 0x00, 0x00, 0x00, 0x00, 0x00, 0x00, 0x09, 0x68, 0x00, 0x00, 0x00,
  0x04, 0x00, 0x00, 0x00, 0xff, 0xff, 0xff, 0xff, 0x7c, 0x00, 0x00, 0x00,
  0x81, 0x00, 0x00, 0x00, 0x01, 0x00, 0x00, 0x00, 0x0c, 0x00, 0x0c, 0x00,
  0x00, 0x00, 0x00, 0x00, 0x08, 0x00, 0x04, 0x00, 0x0c, 0x00, 0x00, 0x00,
  0x08, 0x00, 0x00, 0x00, 0x14, 0x00, 0x00, 0x00, 0x01, 0x00, 0x00, 0x00,
  0x80, 0xff, 0xff, 0xff, 0xff, 0xff, 0xff, 0xff, 0x00, 0x00, 0x00, 0x00,
  0x01, 0x00, 0x00, 0x00, 0x3c, 0x3c, 0x00, 0x3f, 0x19, 0x00, 0x00, 0x00,
  0x73, 0x65, 0x72, 0x76, 0x69, 0x6e, 0x67, 0x5f, 0x64, 0x65, 0x66, 0x61,
  0x75, 0x6c, 0x74, 0x5f, 0x69, 0x6e, 0x70, 0x75, 0x74, 0x5f, 0x31, 0x3a,
  0x30, 0x00, 0x00, 0x00, 0x04, 0x00, 0x00, 0x00, 0x01, 0x00, 0x00, 0x00,
  0x7c, 0x00, 0x00, 0x00, 0x81, 0x00, 0x00, 0x00, 0x01, 0x00, 0x00, 0x00,
  0x06, 0x00, 0x00, 0x00, 0x7c, 0x00, 0x00, 0x00, 0x5c, 0x00, 0x00, 0x00,
  0x48, 0x00, 0x00, 0x00, 0x38, 0x00, 0x00, 0x00, 0x18, 0x00, 0x00, 0x00,
  0x04, 0x00, 0x00, 0x00, 0xa8, 0xff, 0xff, 0xff, 0x19, 0x00, 0x00, 0x00,
  0x02, 0x00, 0x00, 0x00, 0x00, 0x00, 0x00, 0x19, 0xb8, 0xff, 0xff, 0xff,
  0x09, 0x00, 0x00, 0x00, 0x04, 0x00, 0x00, 0x00, 0x00, 0x00, 0x00, 0x09,
  0x0c, 0x00, 0x0c, 0x00, 0x0b, 0x00, 0x00, 0x00, 0x00, 0x00, 0x04, 0x00,
  0x0c, 0x00, 0x00, 0x00, 0x16, 0x00, 0x00, 0x00, 0x00, 0x00, 0x00, 0x16,
  0xe0, 0xff, 0xff, 0xff, 0x11, 0x00, 0x00, 0x00, 0x02, 0x00, 0x00, 0x00,
  0x00, 0x00, 0x00, 0x11, 0xf0, 0xff, 0xff, 0xff, 0x03, 0x00, 0x00, 0x00,
  0x03, 0x00, 0x00, 0x00, 0x00, 0x00, 0x00, 0x03, 0x0c, 0x00, 0x10, 0x00,
  0x0f, 0x00, 0x00, 0x00, 0x08, 0x00, 0x04, 0x00, 0x0c, 0x00, 0x00, 0x00,
  0x61, 0x00, 0x00, 0x00, 0x03, 0x00, 0x00, 0x00, 0x00, 0x00, 0x00, 0x61
};
