alignas(8) const unsigned char tflite_model[] = {
  0x1c, 0x00, 0x00, 0x00, 0x54, 0x46, 0x4c, 0x33, 0x14, 0x00, 0x20, 0x00,
  0x1c, 0x00, 0x18, 0x00, 0x14, 0x00, 0x10, 0x00, 0x0c, 0x00, 0x00, 0x00,
  0x08, 0x00, 0x04, 0x00, 0x14, 0x00, 0x00, 0x00, 0x1c, 0x00, 0x00, 0x00,
  0x88, 0x00, 0x00, 0x00, 0xb8, 0x00, 0x00, 0x00, 0x5c, 0x09, 0x00, 0x00,
  0x6c, 0x09, 0x00, 0x00, 0x4c, 0x13, 0x00, 0x00, 0x03, 0x00, 0x00, 0x00,
  0x01, 0x00, 0x00, 0x00, 0x04, 0x00, 0x00, 0x00, 0xe2, 0xf5, 0xff, 0xff,
  0x0c, 0x00, 0x00, 0x00, 0x1c, 0x00, 0x00, 0x00, 0x40, 0x00, 0x00, 0x00,
  0x0f, 0x00, 0x00, 0x00, 0x73, 0x65, 0x72, 0x76, 0x69, 0x6e, 0x67, 0x5f,
  0x64, 0x65, 0x66, 0x61, 0x75, 0x6c, 0x74, 0x00, 0x01, 0x00, 0x00, 0x00,
  0x04, 0x00, 0x00, 0x00, 0xbc, 0xff, 0xff, 0xff, 0x0c, 0x00, 0x00, 0x00,
  0x04, 0x00, 0x00, 0x00, 0x0d, 0x00, 0x00, 0x00, 0x71, 0x75, 0x61, 0x6e,
  0x74, 0x5f, 0x64, 0x65, 0x6e, 0x73, 0x65, 0x5f, 0x32, 0x00, 0x00, 0x00,
  0x01, 0x00, 0x00, 0x00, 0x04, 0x00, 0x00, 0x00, 0x8a, 0xf6, 0xff, 0xff,
  0x04, 0x00, 0x00, 0x00, 0x07, 0x00, 0x00, 0x00, 0x69, 0x6e, 0x70, 0x75,
  0x74, 0x5f, 0x31, 0x00, 0x01, 0x00, 0x00, 0x00, 0x0c, 0x00, 0x00, 0x00,
  0x08, 0x00, 0x0c, 0x00, 0x08, 0x00, 0x04, 0x00, 0x08, 0x00, 0x00, 0x00,
  0x0e, 0x00, 0x00, 0x00, 0x04, 0x00, 0x00, 0x00, 0x13, 0x00, 0x00, 0x00,
  0x6d, 0x69, 0x6e, 0x5f, 0x72, 0x75, 0x6e, 0x74, 0x69, 0x6d, 0x65, 0x5f,
  0x76, 0x65, 0x72, 0x73, 0x69, 0x6f, 0x6e, 0x00, 0x0f, 0x00, 0x00, 0x00,
  0xa0, 0x08, 0x00, 0x00, 0x98, 0x08, 0x00, 0x00, 0x80, 0x08, 0x00, 0x00,
  0x68, 0x08, 0x00, 0x00, 0x58, 0x06, 0x00, 0x00, 0x28, 0x06, 0x00, 0x00,
  0x20, 0x06, 0x00, 0x00, 0x18, 0x06, 0x00, 0x00, 0x10, 0x06, 0x00, 0x00,
  0x08, 0x06, 0x00, 0x00, 0x58, 0x00, 0x00, 0x00, 0x34, 0x00, 0x00, 0x00,
  0x2c, 0x00, 0x00, 0x00, 0x24, 0x00, 0x00, 0x00, 0x04, 0x00, 0x00, 0x00,
  0x12, 0xf7, 0xff, 0xff, 0x04, 0x00, 0x00, 0x00, 0x10, 0x00, 0x00, 0x00,
  0x32, 0x2e, 0x33, 0x2e, 0x30, 0x00, 0x00, 0x00, 0x00, 0x00, 0x00, 0x00,
  0x00, 0x00, 0x00, 0x00, 0x98, 0xee, 0xff, 0xff, 0x9c, 0xee, 0xff, 0xff,
  0x36, 0xf7, 0xff, 0xff, 0x04, 0x00, 0x00, 0x00, 0x14, 0x00, 0x00, 0x00,
  0xd9, 0xfc, 0xff, 0xff, 0x24, 0xfc, 0xff, 0xff, 0x91, 0xfe, 0xff, 0xff,
  0x93, 0xff, 0xff, 0xff, 0x25, 0x07, 0x00, 0x00, 0x56, 0xf7, 0xff, 0xff,
  0x04, 0x00, 0x00, 0x00, 0xa0, 0x05, 0x00, 0x00, 0x0e, 0x08, 0x10, 0x06,
  0x09, 0xf5, 0xf1, 0x0d, 0x08, 0xfb, 0xf3, 0x12, 0x07, 0x01, 0x05, 0x1c,
  0xfa, 0xfa, 0x04, 0xfe, 0xf0, 0x03, 0xf8, 0x01, 0x01, 0xfd, 0xfa, 0xfe,
  0x01, 0x00, 0xfe, 0x06, 0xfe, 0xfe, 0xf5, 0xfc, 0xf6, 0x02, 0xfb, 0x08,
  0x00, 0xf9, 0xf4, 0x03, 0xfb, 0xfd, 0xf8, 0xf2, 0xbb, 0xfe, 0x0f, 0xaa,
  0xb8, 0x10, 0xc7, 0xa2, 0xfd, 0xfa, 0xe7, 0xe3, 0xee, 0x11, 0x06, 0xfa,
  0xf9, 0xfb, 0xfd, 0x00, 0xf1, 0xf3, 0xfe, 0x00, 0xfc, 0xfd, 0x00, 0xfe,
  0xfe, 0xfd, 0x00, 0x01, 0xfc, 0xfd, 0x03, 0xfe, 0xf8, 0xfc, 0xfe, 0xfd,
  0x00, 0xfa, 0xf6, 0xff, 0xf6, 0x08, 0xf7, 0xfb, 0xe9, 0x16, 0x1b, 0xde,
  0xe9, 0xe6, 0xe5, 0x07, 0xea, 0x00, 0xe8, 0x01, 0xfa, 0x01, 0xfa, 0xfd,
  0xf2, 0xfa, 0xfc, 0x03, 0x01, 0xf1, 0xfd, 0xec, 0xfb, 0x00, 0xfb, 0xfe,
  0xef, 0xf7, 0xfd, 0x04, 0xfa, 0xfc, 0xff, 0xfc, 0xe8, 0xf9, 0xfb, 0xf4,
  0xf3, 0xfa, 0xfc, 0x00, 0xee, 0xf7, 0xf9, 0xf8, 0xe7, 0xf3, 0x0a, 0xd6,
  0xe8, 0xfc, 0xee, 0x0d, 0xfe, 0x08, 0xc8, 0xf5, 0xf4, 0xf4, 0x09, 0xf7,
  0x00, 0x02, 0x04, 0x0d, 0xf5, 0xf7, 0xf7, 0xf0, 0x08, 0xfd, 0xfd, 0x02,
  0xf9, 0x03, 0xf7, 0x02, 0x00, 0xfc, 0xf9, 0x01, 0xf8, 0xfd, 0xfc, 0xf2,
  0xfe, 0xf9, 0xfd, 0xff, 0xe9, 0xfe, 0xf6, 0xf6, 0xec, 0x14, 0x11, 0xea,
  0xeb, 0xeb, 0xea, 0x05, 0xf4, 0xfc, 0xd8, 0xed, 0xe7, 0x08, 0x0e, 0xfb,
  0xf1, 0xff, 0x01, 0xf3, 0xee, 0xeb, 0xf2, 0xfc, 0xff, 0xf7, 0xff, 0xfb,
  0xfe, 0x03, 0xff, 0x07, 0x00, 0x00, 0xfc, 0xfc, 0xf5, 0xfc, 0xfe, 0xfb,
  0xf1, 0xfd, 0xf8, 0xfd, 0xef, 0xf8, 0xff, 0xfa, 0xd8, 0x06, 0x05, 0xec,
  0xed, 0xec, 0xd3, 0xff, 0xf5, 0xff, 0xdf, 0xf9, 0xf1, 0xfc, 0x09, 0xff,
  0xf6, 0xff, 0xf6, 0xec, 0xea, 0xf4, 0xfc, 0xf7, 0xf0, 0xf3, 0xea, 0xf1,
  0xf1, 0xf2, 0xfa, 0xf8, 0xf1, 0xfa, 0xf5, 0xf7, 0xf3, 0xee, 0xf8, 0xfa,
  0xdd, 0xf5, 0xff, 0x02, 0xee, 0xef, 0xf0, 0xf1, 0xf5, 0xf3, 0xf1, 0xf6,
  0xec, 0xf1, 0xf9, 0xe6, 0xfb, 0xf8, 0xf4, 0xf8, 0xf1, 0x02, 0xf2, 0xf6,
  0xf9, 0xf8, 0xf3, 0x00, 0xf9, 0xf7, 0xfb, 0x01, 0xf9, 0xf9, 0xf7, 0xff,
  0xee, 0xff, 0xfa, 0xfa, 0xfe, 0xfa, 0xf5, 0x00, 0xf3, 0xf9, 0xf9, 0xfb,
  0xf8, 0xf8, 0x03, 0xff, 0xfd, 0x01, 0xf6, 0x06, 0xf8, 0xf1, 0xfb, 0xfc,
  0xf3, 0xee, 0xfa, 0xe8, 0xf6, 0xf8, 0xf1, 0xfb, 0xee, 0xfc, 0xf7, 0xfa,
  0x04, 0xfc, 0xf1, 0xff, 0xfa, 0x03, 0xf7, 0x00, 0xfe, 0xf7, 0xf9, 0xfc,
  0xfa, 0xfb, 0xf8, 0xfc, 0xf3, 0xf8, 0xf5, 0xfb, 0xf5, 0xff, 0xfb, 0xf7,
  0x01, 0xfc, 0xf5, 0x02, 0xf5, 0xf9, 0xfb, 0xfe, 0xf8, 0xfb, 0xd1, 0xf8,
  0xf5, 0xfe, 0xfb, 0xfe, 0xe6, 0xfd, 0xde, 0xe8, 0xfb, 0x00, 0x04, 0x05,
  0xe4, 0xfa, 0xfe, 0xec, 0xe6, 0xe7, 0xf5, 0xf9, 0xfe, 0xff, 0xf6, 0x03,
  0xfc, 0xfb, 0xf8, 0xfe, 0xf9, 0xf9, 0xf4, 0xfe, 0xfb, 0xf6, 0xf6, 0xf0,
  0xfc, 0xf9, 0xf7, 0xff, 0xf9, 0xfb, 0xf5, 0xf8, 0xe9, 0xdd, 0xd6, 0x00,
  0xf5, 0xe9, 0x08, 0xfd, 0xee, 0xf7, 0xcb, 0xee, 0xf0, 0xea, 0x04, 0xed,
  0xee, 0xf7, 0xf4, 0xfa, 0xe9, 0xee, 0xf1, 0xe9, 0xfb, 0xfd, 0xf1, 0x03,
  0xf6, 0xfc, 0xf9, 0x03, 0x00, 0xff, 0xf8, 0xfd, 0xf5, 0x05, 0xf7, 0x03,
  0x01, 0xf7, 0xf4, 0xfd, 0xff, 0xfb, 0xf6, 0x07, 0xeb, 0xec, 0xb3, 0x06,
  0xfb, 0xef, 0xf8, 0xe7, 0xdd, 0xf8, 0xdf, 0xed, 0xd3, 0xe8, 0x02, 0xf2,
  0xf1, 0xfa, 0xfd, 0xf7, 0xf4, 0x02, 0xfc, 0xf2, 0x01, 0xf9, 0xf5, 0xfe,
  0xf1, 0xfd, 0xfa, 0x01, 0x02, 0xfa, 0xf7, 0x03, 0xfe, 0x05, 0xfc, 0xfd,
  0xfd, 0xfe, 0xfa, 0x00, 0xf9, 0xfc, 0xfa, 0x01, 0xff, 0xf8, 0xde, 0x19,
  0xfd, 0xfe, 0x06, 0x06, 0xf2, 0xfd, 0xf3, 0xf2, 0xe9, 0xf2, 0xf3, 0xee,
  0xea, 0xf7, 0xee, 0xff, 0xe9, 0xef, 0xfa, 0xf2, 0xf7, 0xf6, 0xfa, 0xf6,
  0xe9, 0xf1, 0xf7, 0x00, 0xf8, 0xf9, 0xf6, 0xf2, 0xf5, 0xf3, 0xf5, 0xf3,
  0xf8, 0xf9, 0xf7, 0xfb, 0xe2, 0xfa, 0xf8, 0x00, 0xf4, 0xf9, 0xfe, 0xf6,
  0xed, 0xf2, 0xff, 0xf6, 0xf2, 0xfd, 0x05, 0xec, 0xed, 0xfc, 0xf7, 0xea,
  0x07, 0x01, 0x01, 0xfc, 0xfc, 0xfb, 0xfd, 0x01, 0xfd, 0xfc, 0xfc, 0xfb,
  0xfe, 0x01, 0x06, 0xfe, 0xfd, 0xfb, 0xfd, 0xff, 0xfd, 0x04, 0x02, 0xff,
  0xfa, 0xfe, 0xf9, 0xfc, 0xfd, 0xf7, 0x01, 0x00, 0xd7, 0xfe, 0xf5, 0xfe,
  0xf0, 0xf2, 0x0e, 0x09, 0xe4, 0xfc, 0x0f, 0xed, 0xe1, 0xf4, 0xf8, 0xe7,
  0x01, 0x00, 0x05, 0xfd, 0xfd, 0x02, 0x03, 0xfe, 0xff, 0x02, 0xfa, 0xfd,
  0xfb, 0x03, 0x00, 0x01, 0x03, 0x00, 0xfb, 0xff, 0xfd, 0xf5, 0xfe, 0x03,
  0xff, 0x04, 0x00, 0xfb, 0x05, 0xf7, 0x01, 0xf2, 0xde, 0xf3, 0xc3, 0xfa,
  0xea, 0xec, 0x01, 0xee, 0x06, 0xff, 0xfe, 0xe7, 0xd8, 0xfb, 0xec, 0xf4,
  0xeb, 0xfb, 0xff, 0xef, 0xe4, 0xfc, 0xf7, 0xec, 0x08, 0x01, 0x01, 0xfb,
  0xfa, 0x03, 0xfc, 0x02, 0xf5, 0xf9, 0xfa, 0xfa, 0xfe, 0xfa, 0x01, 0x0a,
  0x0a, 0xfe, 0xf9, 0xfd, 0xfb, 0xfe, 0xff, 0x00, 0xed, 0x19, 0xe4, 0xf6,
  0xe1, 0xf8, 0x09, 0xe8, 0x07, 0xfe, 0x25, 0x02, 0x05, 0x0d, 0xee, 0xfb,
  0xf2, 0x00, 0x02, 0xf6, 0xe7, 0xe5, 0xf6, 0xea, 0x03, 0x01, 0x02, 0xfa,
  0xfc, 0x08, 0x03, 0xfd, 0xfe, 0x03, 0xfc, 0xfc, 0xfc, 0xfe, 0xff, 0xf9,
  0x03, 0x00, 0xfa, 0xfc, 0x02, 0x06, 0xfa, 0xf7, 0xfa, 0x00, 0xea, 0xd9,
  0xde, 0xea, 0x0b, 0xff, 0xf1, 0x01, 0x2e, 0xea, 0x09, 0xeb, 0xef, 0xfb,
  0xee, 0x00, 0xfb, 0xf0, 0xea, 0xf0, 0x01, 0xec, 0x00, 0xfd, 0xf8, 0x04,
  0xf9, 0xfa, 0xfd, 0x06, 0xfd, 0x01, 0xff, 0xff, 0x02, 0x03, 0xff, 0x01,
  0xfa, 0x03, 0x02, 0xfc, 0xfc, 0xfc, 0xfd, 0x03, 0xf3, 0xf0, 0xf6, 0xcd,
  0xe6, 0xe6, 0xd2, 0xa9, 0xfa, 0xfe, 0x0b, 0xf1, 0xf7, 0xf6, 0xfd, 0xf4,
  0xf8, 0x03, 0xfd, 0xf9, 0xf4, 0xf7, 0x04, 0xf8, 0xff, 0x03, 0x04, 0xf6,
  0xf7, 0xfd, 0x00, 0x04, 0xfd, 0x01, 0xfa, 0xf4, 0x00, 0xf6, 0xf9, 0xf8,
  0xfa, 0x01, 0xfb, 0x00, 0xee, 0xf5, 0xfb, 0xea, 0x9c, 0xfd, 0xcf, 0xd7,
  0xad, 0xac, 0xf1, 0xc0, 0xe5, 0xfa, 0xf9, 0xfc, 0xdf, 0xf7, 0xf9, 0xdd,
  0xf4, 0xfa, 0xfb, 0x07, 0xf0, 0x01, 0xfa, 0xf4, 0xf2, 0xfd, 0xfc, 0x06,
  0xf4, 0x05, 0xf8, 0xf7, 0xf7, 0xfd, 0xfd, 0x09, 0xfa, 0x0c, 0xfb, 0xfe,
  0x00, 0xf9, 0xfe, 0x07, 0xf3, 0x04, 0xfb, 0xf9, 0xfe, 0xff, 0xd3, 0xf2,
  0xdf, 0xba, 0xfa, 0xf5, 0xf1, 0xfd, 0xf4, 0x1d, 0x03, 0xf6, 0xfd, 0xee,
  0xeb, 0xf8, 0xf9, 0x06, 0xf3, 0x03, 0xf8, 0xf1, 0xfa, 0xfb, 0xfa, 0x05,
  0xf3, 0x04, 0xfd, 0xf4, 0xf8, 0xfb, 0xfc, 0x05, 0xf5, 0x06, 0xfd, 0xf9,
  0x08, 0xfb, 0x02, 0x0e, 0xfc, 0x0c, 0xfc, 0x03, 0xee, 0xfb, 0xfb, 0xf7,
  0xf1, 0xf2, 0x0b, 0xf2, 0xfc, 0xfb, 0x18, 0x16, 0x02, 0xff, 0x05, 0xf4,
  0x09, 0xfc, 0xf9, 0x06, 0x05, 0x14, 0xfa, 0xfb, 0xec, 0xf9, 0xfe, 0x03,
  0xf3, 0x01, 0x00, 0xee, 0xee, 0xf8, 0xfc, 0x07, 0xf5, 0x04, 0xf6, 0xe7,
  0xf4, 0xf9, 0x00, 0x09, 0xfd, 0x0c, 0xfe, 0x01, 0xf4, 0xff, 0xf3, 0xf8,
  0xec, 0xf3, 0xfc, 0xe5, 0xee, 0xfd, 0x01, 0x12, 0xfb, 0xfa, 0x09, 0xf4,
  0x00, 0xff, 0xf9, 0xfd, 0x01, 0x14, 0x04, 0x0a, 0xe9, 0xfc, 0xfd, 0x03,
  0xf0, 0x07, 0xf9, 0xf3, 0xe9, 0xfd, 0xfe, 0x07, 0xed, 0x04, 0xfa, 0xf8,
  0xfe, 0xfb, 0x02, 0x08, 0xf2, 0x05, 0xfb, 0xfc, 0xee, 0xff, 0xf9, 0xf6,
  0xed, 0xf3, 0x0d, 0xf9, 0x02, 0x01, 0xea, 0x21, 0xfa, 0x09, 0x03, 0xf9,
  0x0c, 0xff, 0xfa, 0x17, 0xfe, 0x15, 0xff, 0x04, 0xed, 0xfb, 0xf8, 0x04,
  0xf3, 0x02, 0xfc, 0xee, 0xf7, 0xfc, 0xfa, 0x03, 0xed, 0x07, 0x00, 0xf4,
  0xf3, 0xfc, 0xfe, 0x07, 0xee, 0x09, 0xfb, 0xfd, 0xdd, 0x09, 0xf9, 0xe6,
  0xd2, 0xf7, 0x24, 0xf3, 0xdb, 0xf8, 0x09, 0x10, 0xde, 0x05, 0xf5, 0xe3,
  0x03, 0xfb, 0x0c, 0x13, 0xfd, 0x17, 0xf7, 0xf7, 0xfc, 0x00, 0x03, 0x13,
  0xfb, 0x18, 0xfa, 0xfc, 0x07, 0xfa, 0x06, 0x12, 0xf3, 0x0e, 0x01, 0x07,
  0x04, 0xfc, 0x05, 0x07, 0x03, 0x14, 0xff, 0x00, 0x09, 0x0f, 0x0b, 0x03,
  0x1a, 0x10, 0x1a, 0x1a, 0xf9, 0x0c, 0x1a, 0xf5, 0x0a, 0x06, 0x11, 0xfa,
  0x02, 0x0c, 0x12, 0x02, 0x10, 0x01, 0x12, 0x02, 0x03, 0x0b, 0x11, 0x09,
  0x0d, 0x02, 0x11, 0xfd, 0x06, 0x0a, 0x11, 0x06, 0x0d, 0xfd, 0x0c, 0xfe,
  0x07, 0x0a, 0x11, 0xfe, 0x06, 0x07, 0x11, 0x03, 0xc3, 0x10, 0x0b, 0xcb,
  0xd1, 0x0a, 0xf8, 0xb1, 0xfd, 0x0d, 0x13, 0xfe, 0x0b, 0x00, 0x0d, 0xfb,
  0xfe, 0x0b, 0x11, 0x01, 0x0b, 0x04, 0x11, 0xff, 0x01, 0x0c, 0x12, 0xfb,
  0x0a, 0xfe, 0x0d, 0x00, 0x05, 0x0d, 0x0d, 0xff, 0x0f, 0x02, 0x0e, 0x05,
  0xfe, 0x0d, 0x14, 0xff, 0x07, 0xfd, 0x0e, 0x09, 0x89, 0xef, 0xf3, 0xa4,
  0x8d, 0xc4, 0xc5, 0xad, 0xe7, 0x0c, 0x12, 0xf7, 0xf2, 0xed, 0x08, 0xe1,
  0x00, 0x09, 0x0d, 0xfb, 0x09, 0x02, 0x0f, 0x04, 0xfe, 0x11, 0x09, 0xfd,
  0x0c, 0x04, 0x0f, 0x00, 0x09, 0x0b, 0x18, 0x08, 0x13, 0x0b, 0x12, 0x05,
  0xfe, 0x07, 0x16, 0x03, 0x0b, 0x05, 0x0e, 0x06, 0x81, 0xf9, 0xb3, 0x9d,
  0x95, 0x97, 0xc7, 0xbe, 0xe3, 0x06, 0x06, 0xf1, 0xf1, 0xe5, 0x07, 0xee,
  0x03, 0x0b, 0x07, 0xfb, 0x0b, 0x05, 0x10, 0xfe, 0xfc, 0x0d, 0x10, 0x00,
  0x0b, 0xfd, 0x11, 0xfb, 0xff, 0x0e, 0x16, 0x04, 0x13, 0x03, 0x10, 0x06,
  0x00, 0x0e, 0x15, 0x02, 0x06, 0xff, 0x11, 0x07, 0xcc, 0xe1, 0xc8, 0xc5,
  0xc6, 0xae, 0xc3, 0xab, 0xf2, 0x0a, 0x08, 0xf6, 0xf9, 0xf1, 0x0a, 0xe1,
  0xfe, 0x0d, 0x0a, 0xfb, 0x13, 0x04, 0x11, 0x01, 0xfa, 0x0a, 0x11, 0xfe,
  0x0a, 0xfe, 0x10, 0xfd, 0x03, 0x10, 0x17, 0xff, 0x05, 0xfc, 0x0f, 0xff,
  0x08, 0x0f, 0x13, 0xff, 0x0b, 0x06, 0x10, 0x01, 0xe8, 0x04, 0xeb, 0xe7,
  0xf6, 0xf2, 0xf2, 0xd4, 0x00, 0x0c, 0x17, 0xff, 0x0b, 0xfd, 0x08, 0xf6,
  0x08, 0x08, 0x17, 0x00, 0x0e, 0x04, 0x12, 0x03, 0xff, 0x05, 0x0d, 0xfd,
  0x0b, 0xfa, 0x0d, 0xee, 0x01, 0x08, 0x0e, 0x01, 0x0c, 0x00, 0x0d, 0x03,
  0xff, 0x0d, 0x0d, 0x01, 0x19, 0x01, 0x11, 0x09, 0x6c, 0xf4, 0xff, 0xff,
  0x70, 0xf4, 0xff, 0xff, 0x74, 0xf4, 0xff, 0xff, 0x78, 0xf4, 0xff, 0xff,
  0x12, 0xfd, 0xff, 0xff, 0x04, 0x00, 0x00, 0x00, 0x20, 0x00, 0x00, 0x00,
  0x83, 0xff, 0xff, 0xff, 0x0f, 0xff, 0xff, 0xff, 0x58, 0xfd, 0xff, 0xff,
  0xe6, 0xff, 0xff, 0xff, 0x46, 0x01, 0x00, 0x00, 0xa3, 0xfe, 0xff, 0xff,
  0x09, 0xff, 0xff, 0xff, 0xf6, 0xfe, 0xff, 0xff, 0x3e, 0xfd, 0xff, 0xff,
  0x04, 0x00, 0x00, 0x00, 0x00, 0x02, 0x00, 0x00, 0xf5, 0xbe, 0x81, 0x09,
  0x2d, 0xe5, 0x18, 0x08, 0x04, 0xe0, 0xb0, 0xed, 0x4e, 0xc6, 0xc4, 0xd9,
  0x21, 0x2a, 0x96, 0x1b, 0xfc, 0xd9, 0x1a, 0x20, 0xb0, 0x49, 0x21, 0x9f,
  0x16, 0x1d, 0x0d, 0x4d, 0x15, 0x2a, 0x3c, 0xbb, 0x37, 0x1a, 0xc7, 0xb7,
  0xe9, 0xda, 0x43, 0xed, 0x08, 0x4c, 0xca, 0x3b, 0xbc, 0xbf, 0x36, 0xcc,
  0x3f, 0x59, 0x39, 0xc9, 0xfd, 0x3b, 0x2c, 0xfb, 0x2a, 0xf7, 0xef, 0x12,
  0x1b, 0x0c, 0x44, 0x54, 0x37, 0x66, 0xee, 0xfe, 0xe2, 0xbb, 0xdb, 0x2d,
  0xe1, 0xef, 0xec, 0xf0, 0xa7, 0x9f, 0x94, 0xeb, 0x9c, 0x1c, 0xd8, 0xfd,
  0xc6, 0xab, 0x97, 0xbf, 0xcc, 0x15, 0xfd, 0xe2, 0x37, 0x83, 0xee, 0x3a,
  0x09, 0x01, 0xf1, 0x11, 0x26, 0xc0, 0x03, 0x5f, 0x37, 0xdc, 0xd0, 0xe7,
  0xc6, 0xe3, 0x1f, 0x7f, 0x1c, 0x25, 0x29, 0xe7, 0xbe, 0xfb, 0xee, 0x1a,
  0x1b, 0xe9, 0xf8, 0x00, 0x03, 0xd9, 0x1f, 0x55, 0x1a, 0x39, 0x23, 0xff,
  0x04, 0xda, 0x2f, 0xe2, 0xef, 0x24, 0x12, 0xec, 0xe6, 0xda, 0xdf, 0xe6,
  0x06, 0xdb, 0xe4, 0x05, 0xf7, 0xf2, 0x37, 0x6f, 0x3f, 0x0a, 0xc2, 0xff,
  0xfe, 0xe9, 0x40, 0x6c, 0x1c, 0x04, 0x05, 0xf6, 0x0b, 0xc0, 0xae, 0xdd,
  0xaa, 0xdc, 0xbf, 0x43, 0xe5, 0xcf, 0xb4, 0xb5, 0x86, 0xfa, 0xd4, 0x27,
  0xe4, 0xa8, 0xca, 0x7f, 0x2f, 0x28, 0x0c, 0x3f, 0xf6, 0x30, 0xe3, 0xdd,
  0xeb, 0xc3, 0x14, 0x10, 0xfd, 0x24, 0xdc, 0xc9, 0x06, 0xbf, 0x2b, 0x46,
  0xed, 0x34, 0x1a, 0xb6, 0xe2, 0x53, 0xf5, 0xd7, 0xf5, 0x0a, 0xfd, 0xf4,
  0xe9, 0x7f, 0x19, 0xeb, 0xff, 0x37, 0xfb, 0xff, 0x0d, 0x0d, 0xd4, 0x2d,
  0x00, 0x26, 0x01, 0xef, 0x05, 0x15, 0x1d, 0x1c, 0xfe, 0x1f, 0xe5, 0xd7,
  0x3a, 0xeb, 0x0b, 0xe7, 0x0d, 0x4f, 0x02, 0xc2, 0x33, 0xf9, 0x42, 0xed,
  0xc3, 0xe1, 0x08, 0x0f, 0x42, 0xff, 0xfe, 0xbd, 0xf5, 0x1b, 0xfa, 0xe2,
  0x26, 0x4e, 0xc6, 0xea, 0xd7, 0x46, 0x38, 0x24, 0x37, 0x00, 0xcb, 0xe7,
  0x99, 0x1e, 0x04, 0x46, 0x34, 0xc7, 0xae, 0xb5, 0xf7, 0x52, 0x01, 0x50,
  0x60, 0xf3, 0x81, 0x16, 0x00, 0x2f, 0xf7, 0x4b, 0x15, 0xe3, 0x95, 0xdf,
  0x21, 0x41, 0xff, 0x2d, 0xd6, 0x0f, 0xc9, 0x8f, 0xd3, 0x6f, 0x04, 0x01,
  0xdc, 0xd7, 0xbb, 0xb5, 0xfc, 0x20, 0xc1, 0xdc, 0x24, 0x05, 0x1e, 0xea,
  0xfd, 0x0a, 0xc3, 0xbb, 0xf4, 0x26, 0x0f, 0xf3, 0xf3, 0xeb, 0x27, 0xed,
  0x1d, 0xf8, 0xd6, 0xf8, 0x09, 0x1a, 0x52, 0xda, 0xb5, 0x2a, 0x08, 0x20,
  0xbf, 0xca, 0x17, 0x0b, 0xfe, 0x02, 0x2a, 0xd5, 0x27, 0xd4, 0xfb, 0xc5,
  0xc3, 0xef, 0x20, 0xdb, 0xa5, 0xc8, 0xb0, 0xeb, 0xee, 0x2c, 0x2c, 0xee,
  0x81, 0x96, 0x94, 0xdc, 0x07, 0xfa, 0x40, 0x01, 0x30, 0xcd, 0xa3, 0x12,
  0x19, 0xf4, 0xed, 0x2a, 0xf2, 0xe7, 0xb9, 0xfa, 0x3b, 0x11, 0x03, 0x2c,
  0xf8, 0xc8, 0xc0, 0xea, 0xec, 0x13, 0x16, 0x3b, 0x0e, 0xb3, 0xaf, 0xeb,
  0x28, 0x16, 0x24, 0x37, 0x1f, 0xe0, 0x90, 0x0b, 0x26, 0xfb, 0xfc, 0xf6,
  0x06, 0x0f, 0x81, 0xcd, 0x0d, 0xee, 0xe6, 0xf5, 0xeb, 0x5c, 0xb9, 0xd5,
  0x0b, 0xee, 0x47, 0xfe, 0xdd, 0x0b, 0x0f, 0xec, 0xdc, 0x0e, 0xf8, 0x2d,
  0x2b, 0x17, 0x18, 0x1b, 0x00, 0xf9, 0x2e, 0x30, 0x13, 0xf7, 0x58, 0x43,
  0x1e, 0xf1, 0x04, 0x18, 0xf8, 0xaa, 0xcd, 0x26, 0x07, 0x0b, 0xf7, 0x0d,
  0xa9, 0xe3, 0xe1, 0xdd, 0x05, 0xfa, 0x0f, 0x25, 0x87, 0xbe, 0x97, 0xe1,
  0xe3, 0x0e, 0x2b, 0x0a, 0x81, 0xde, 0xdc, 0xef, 0xef, 0xe3, 0xdb, 0x00,
  0xfc, 0x2c, 0x02, 0xce, 0xfb, 0xd1, 0xe1, 0x33, 0x31, 0x16, 0xfc, 0x2d,
  0x3b, 0xfe, 0x01, 0x29, 0x4a, 0xff, 0xff, 0xff, 0x04, 0x00, 0x00, 0x00,
  0x08, 0x00, 0x00, 0x00, 0xff, 0xff, 0xff, 0xff, 0x20, 0x01, 0x00, 0x00,
  0x5e, 0xff, 0xff, 0xff, 0x04, 0x00, 0x00, 0x00, 0x08, 0x00, 0x00, 0x00,
  0x20, 0x00, 0x00, 0x00, 0x20, 0x00, 0x00, 0x00, 0xdc, 0xf6, 0xff, 0xff,
  0xe0, 0xf6, 0xff, 0xff, 0x0f, 0x00, 0x00, 0x00, 0x4d, 0x4c, 0x49, 0x52,
  0x20, 0x43, 0x6f, 0x6e, 0x76, 0x65, 0x72, 0x74, 0x65, 0x64, 0x2e, 0x00,
  0x01, 0x00, 0x00, 0x00, 0x14, 0x00, 0x00, 0x00, 0x00, 0x00, 0x0e, 0x00,
  0x18, 0x00, 0x14, 0x00, 0x10, 0x00, 0x0c, 0x00, 0x08, 0x00, 0x04, 0x00,
  0x0e, 0x00, 0x00, 0x00, 0x14, 0x00, 0x00, 0x00, 0x1c, 0x00, 0x00, 0x00,
  0xc8, 0x01, 0x00, 0x00, 0xcc, 0x01, 0x00, 0x00, 0xd0, 0x01, 0x00, 0x00,
  0x04, 0x00, 0x00, 0x00, 0x6d, 0x61, 0x69, 0x6e, 0x00, 0x00, 0x00, 0x00,
  0x06, 0x00, 0x00, 0x00, 0x74, 0x01, 0x00, 0x00, 0x10, 0x01, 0x00, 0x00,
  0xac, 0x00, 0x00, 0x00, 0x84, 0x00, 0x00, 0x00, 0x40, 0x00, 0x00, 0x00,
  0x04, 0x00, 0x00, 0x00, 0x12, 0xff, 0xff, 0xff, 0x1c, 0x00, 0x00, 0x00,
  0x00, 0x00, 0x00, 0x09, 0x1c, 0x00, 0x00, 0x00, 0x20, 0x00, 0x00, 0x00,
  0x05, 0x00, 0x00, 0x00, 0x00, 0x00, 0x06, 0x00, 0x08, 0x00, 0x04, 0x00,
  0x06, 0x00, 0x00, 0x00, 0x00, 0x00, 0x80, 0x3f, 0x01, 0x00, 0x00, 0x00,
  0x0c, 0x00, 0x00, 0x00, 0x01, 0x00, 0x00, 0x00, 0x0b, 0x00, 0x00, 0x00,
  0x4a, 0xff, 0xff, 0xff, 0x14, 0x00, 0x00, 0x00, 0x00, 0x00, 0x00, 0x08,
  0x10, 0x00, 0x00, 0x00, 0x14, 0x00, 0x00, 0x00, 0x04, 0x00, 0x00, 0x00,
  0xa0, 0xf7, 0xff, 0xff, 0x01, 0x00, 0x00, 0x00, 0x0b, 0x00, 0x00, 0x00,
  0x03, 0x00, 0x00, 0x00, 0x08, 0x00, 0x00, 0x00, 0x09, 0x00, 0x00, 0x00,
  0x0a, 0x00, 0x00, 0x00, 0x00, 0x00, 0x0a, 0x00, 0x10, 0x00, 0x0c, 0x00,
  0x08, 0x00, 0x04, 0x00, 0x0a, 0x00, 0x00, 0x00, 0x0c, 0x00, 0x00, 0x00,
  0x10, 0x00, 0x00, 0x00, 0x03, 0x00, 0x00, 0x00, 0x01, 0x00, 0x00, 0x00,
  0x08, 0x00, 0x00, 0x00, 0x02, 0x00, 0x00, 0x00, 0x07, 0x00, 0x00, 0x00,
  0x02, 0x00, 0x00, 0x00, 0xae, 0xff, 0xff, 0xff, 0x24, 0x00, 0x00, 0x00,
  0x00, 0x00, 0x00, 0x05, 0x34, 0x00, 0x00, 0x00, 0x38, 0x00, 0x00, 0x00,
  0x02, 0x00, 0x00, 0x00, 0x00, 0x00, 0x0e, 0x00, 0x18, 0x00, 0x17, 0x00,
  0x10, 0x00, 0x0c, 0x00, 0x08, 0x00, 0x04, 0x00, 0x0e, 0x00, 0x00, 0x00,
  0x02, 0x00, 0x00, 0x00, 0x02, 0x00, 0x00, 0x00, 0x02, 0x00, 0x00, 0x00,
  0x02, 0x00, 0x00, 0x00, 0x00, 0x00, 0x00, 0x01, 0x01, 0x00, 0x00, 0x00,
  0x07, 0x00, 0x00, 0x00, 0x01, 0x00, 0x00, 0x00, 0x06, 0x00, 0x00, 0x00,
  0x00, 0x00, 0x0e, 0x00, 0x18, 0x00, 0x14, 0x00, 0x10, 0x00, 0x0c, 0x00,
  0x0b, 0x00, 0x04, 0x00, 0x0e, 0x00, 0x00, 0x00, 0x20, 0x00, 0x00, 0x00,
  0x00, 0x00, 0x00, 0x01, 0x2c, 0x00, 0x00, 0x00, 0x30, 0x00, 0x00, 0x00,
  0x01, 0x00, 0x00, 0x00, 0x0c, 0x00, 0x14, 0x00, 0x13, 0x00, 0x0c, 0x00,
  0x08, 0x00, 0x07, 0x00, 0x0c, 0x00, 0x00, 0x00, 0x00, 0x00, 0x00, 0x01,
  0x02, 0x00, 0x00, 0x00, 0x02, 0x00, 0x00, 0x00, 0x00, 0x00, 0x00, 0x01,
  0x01, 0x00, 0x00, 0x00, 0x06, 0x00, 0x00, 0x00, 0x03, 0x00, 0x00, 0x00,
  0x05, 0x00, 0x00, 0x00, 0x03, 0x00, 0x00, 0x00, 0x04, 0x00, 0x00, 0x00,
  0x00, 0x00, 0x0e, 0x00, 0x14, 0x00, 0x00, 0x00, 0x10, 0x00, 0x0c, 0x00,
  0x0b, 0x00, 0x04, 0x00, 0x0e, 0x00, 0x00, 0x00, 0x18, 0x00, 0x00, 0x00,
  0x00, 0x00, 0x00, 0x4a, 0x18, 0x00, 0x00, 0x00, 0x1c, 0x00, 0x00, 0x00,
  0x08, 0x00, 0x08, 0x00, 0x00, 0x00, 0x07, 0x00, 0x08, 0x00, 0x00, 0x00,
  0x00, 0x00, 0x00, 0x01, 0x01, 0x00, 0x00, 0x00, 0x05, 0x00, 0x00, 0x00,
  0x02, 0x00, 0x00, 0x00, 0x00, 0x00, 0x00, 0x00, 0x01, 0x00, 0x00, 0x00,
  0x01, 0x00, 0x00, 0x00, 0x0c, 0x00, 0x00, 0x00, 0x01, 0x00, 0x00, 0x00,
  0x00, 0x00, 0x00, 0x00, 0x0d, 0x00, 0x00, 0x00, 0x50, 0x07, 0x00, 0x00,
  0xec, 0x06, 0x00, 0x00, 0x98, 0x06, 0x00, 0x00, 0x88, 0x05, 0x00, 0x00,
  0x8c, 0x04, 0x00, 0x00, 0xf0, 0x03, 0x00, 0x00, 0x24, 0x03, 0x00, 0x00,
  0x98, 0x02, 0x00, 0x00, 0x24, 0x02, 0x00, 0x00, 0x78, 0x01, 0x00, 0x00,
  0x1c, 0x01, 0x00, 0x00, 0x80, 0x00, 0x00, 0x00, 0x04, 0x00, 0x00, 0x00,
  0xf8, 0xf8, 0xff, 0xff, 0x18, 0x00, 0x00, 0x00, 0x20, 0x00, 0x00, 0x00,
  0x40, 0x00, 0x00, 0x00, 0x0d, 0x00, 0x00, 0x00, 0x00, 0x00, 0x00, 0x09,
  0x54, 0x00, 0x00, 0x00, 0x02, 0x00, 0x00, 0x00, 0xff, 0xff, 0xff, 0xff,
  0x05, 0x00, 0x00, 0x00, 0xdc, 0xf8, 0xff, 0xff, 0x08, 0x00, 0x00, 0x00,
  0x14, 0x00, 0x00, 0x00, 0x01, 0x00, 0x00, 0x00, 0x80, 0xff, 0xff, 0xff,
  0xff, 0xff, 0xff, 0xff, 0x00, 0x00, 0x00, 0x00, 0x01, 0x00, 0x00, 0x00,
  0x00, 0x00, 0x80, 0x3b, 0x19, 0x00, 0x00, 0x00, 0x53, 0x74, 0x61, 0x74,
  0x65, 0x66, 0x75, 0x6c, 0x50, 0x61, 0x72, 0x74, 0x69, 0x74, 0x69, 0x6f,
  0x6e, 0x65, 0x64, 0x43, 0x61, 0x6c, 0x6c, 0x3a, 0x30, 0x00, 0x00, 0x00,
  0x02, 0x00, 0x00, 0x00, 0x01, 0x00, 0x00, 0x00, 0x05, 0x00, 0x00, 0x00,
  0x70, 0xf9, 0xff, 0xff, 0x18, 0x00, 0x00, 0x00, 0x20, 0x00, 0x00, 0x00,
  0x40, 0x00, 0x00, 0x00, 0x0c, 0x00, 0x00, 0x00, 0x00, 0x00, 0x00, 0x09,
  0x74, 0x00, 0x00, 0x00, 0x02, 0x00, 0x00, 0x00, 0xff, 0xff, 0xff, 0xff,
  0x05, 0x00, 0x00, 0x00, 0x54, 0xf9, 0xff, 0xff, 0x08, 0x00, 0x00, 0x00,
  0x14, 0x00, 0x00, 0x00, 0x01, 0x00, 0x00, 0x00, 0x67, 0x00, 0x00, 0x00,
  0x00, 0x00, 0x00, 0x00, 0x00, 0x00, 0x00, 0x00, 0x01, 0x00, 0x00, 0x00,
  0x23, 0x61, 0xa9, 0x3d, 0x3a, 0x00, 0x00, 0x00, 0x6d, 0x6f, 0x64, 0x65,
  0x6c, 0x5f, 0x33, 0x2f, 0x71, 0x75, 0x61, 0x6e, 0x74, 0x5f, 0x64, 0x65,
  0x6e, 0x73, 0x65, 0x5f, 0x32, 0x2f, 0x4d, 0x61, 0x74, 0x4d, 0x75, 0x6c,
  0x3b, 0x6d, 0x6f, 0x64, 0x65, 0x6c, 0x5f, 0x33, 0x2f, 0x71, 0x75, 0x61,
  0x6e, 0x74, 0x5f, 0x64, 0x65, 0x6e, 0x73, 0x65, 0x5f, 0x32, 0x2f, 0x42,
  0x69, 0x61, 0x73, 0x41, 0x64, 0x64, 0x00, 0x00, 0x02, 0x00, 0x00, 0x00,
  0x01, 0x00, 0x00, 0x00, 0x05, 0x00, 0x00, 0x00, 0x62, 0xfa, 0xff, 0xff,
  0x14, 0x00, 0x00, 0x00, 0x34, 0x00, 0x00, 0x00, 0x0b, 0x00, 0x00, 0x00,
  0x00, 0x00, 0x00, 0x02, 0x3c, 0x00, 0x00, 0x00, 0xdc, 0xf9, 0xff, 0xff,
  0x08, 0x00, 0x00, 0x00, 0x14, 0x00, 0x00, 0x00, 0x01, 0x00, 0x00, 0x00,
  0x00, 0x00, 0x00, 0x00, 0x00, 0x00, 0x00, 0x00, 0x00, 0x00, 0x00, 0x00,
  0x01, 0x00, 0x00, 0x00, 0x17, 0x3e, 0x24, 0x3a, 0x0c, 0x00, 0x00, 0x00,
  0x64, 0x65, 0x6e, 0x73, 0x65, 0x5f, 0x32, 0x2f, 0x62, 0x69, 0x61, 0x73,
  0x00, 0x00, 0x00, 0x00, 0x01, 0x00, 0x00, 0x00, 0x05, 0x00, 0x00, 0x00,
  0xba, 0xfa, 0xff, 0xff, 0x14, 0x00, 0x00, 0x00, 0x34, 0x00, 0x00, 0x00,
  0x0a, 0x00, 0x00, 0x00, 0x00, 0x00, 0x00, 0x09, 0x88, 0x00, 0x00, 0x00,
  0x34, 0xfa, 0xff, 0xff, 0x08, 0x00, 0x00, 0x00, 0x14, 0x00, 0x00, 0x00,
  0x01, 0x00, 0x00, 0x00, 0x00, 0x00, 0x00, 0x00, 0x00, 0x00, 0x00, 0x00,
  0x00, 0x00, 0x00, 0x00, 0x01, 0x00, 0x00, 0x00, 0x58, 0xd6, 0x0f, 0x3d,
  0x59, 0x00, 0x00, 0x00, 0x6d, 0x6f, 0x64, 0x65, 0x6c, 0x5f, 0x33, 0x2f,
  0x71, 0x75, 0x61, 0x6e, 0x74, 0x5f, 0x64, 0x65, 0x6e, 0x73, 0x65, 0x5f,
  0x32, 0x2f, 0x4d, 0x61, 0x74, 0x4d, 0x75, 0x6c, 0x3b, 0x6d, 0x6f, 0x64,
  0x65, 0x6c, 0x5f, 0x33, 0x2f, 0x71, 0x75, 0x61, 0x6e, 0x74, 0x5f, 0x64,
  0x65, 0x6e, 0x73, 0x65, 0x5f, 0x32, 0x2f, 0x4c, 0x61, 0x73, 0x74, 0x56,
  0x61, 0x6c, 0x75, 0x65, 0x51, 0x75, 0x61, 0x6e, 0x74, 0x2f, 0x46, 0x61,
  0x6b, 0x65, 0x51, 0x75, 0x61, 0x6e, 0x74, 0x57, 0x69, 0x74, 0x68, 0x4d,
  0x69, 0x6e, 0x4d, 0x61, 0x78, 0x56, 0x61, 0x72, 0x73, 0x00, 0x00, 0x00,
  0x02, 0x00, 0x00, 0x00, 0x05, 0x00, 0x00, 0x00, 0x20, 0x01, 0x00, 0x00,
  0x08, 0xfb, 0xff, 0xff, 0x18, 0x00, 0x00, 0x00, 0x20, 0x00, 0x00, 0x00,
  0x3c, 0x00, 0x00, 0x00, 0x09, 0x00, 0x00, 0x00, 0x00, 0x00, 0x00, 0x09,
  0x4c, 0x00, 0x00, 0x00, 0x02, 0x00, 0x00, 0x00, 0xff, 0xff, 0xff, 0xff,
  0x20, 0x01, 0x00, 0x00, 0xec, 0xfa, 0xff, 0xff, 0x08, 0x00, 0x00, 0x00,
  0x10, 0x00, 0x00, 0x00, 0x01, 0x00, 0x00, 0x00, 0xe3, 0xff, 0xff, 0xff,
  0xff, 0xff, 0xff, 0xff, 0x01, 0x00, 0x00, 0x00, 0x96, 0x28, 0x92, 0x3c,
  0x17, 0x00, 0x00, 0x00, 0x6d, 0x6f, 0x64, 0x65, 0x6c, 0x5f, 0x33, 0x2f,
  0x66, 0x6c, 0x61, 0x74, 0x74, 0x65, 0x6e, 0x2f, 0x52, 0x65, 0x73, 0x68,
  0x61, 0x70, 0x65, 0x00, 0x02, 0x00, 0x00, 0x00, 0x01, 0x00, 0x00, 0x00,
  0x20, 0x01, 0x00, 0x00, 0x78, 0xfb, 0xff, 0xff, 0x18, 0x00, 0x00, 0x00,
  0x28, 0x00, 0x00, 0x00, 0x44, 0x00, 0x00, 0x00, 0x08, 0x00, 0x00, 0x00,
  0x00, 0x00, 0x00, 0x09, 0x5c, 0x00, 0x00, 0x00, 0x04, 0x00, 0x00, 0x00,
  0xff, 0xff, 0xff, 0xff, 0x06, 0x00, 0x00, 0x00, 0x06, 0x00, 0x00, 0x00,
  0x08, 0x00, 0x00, 0x00, 0x64, 0xfb, 0xff, 0xff, 0x08, 0x00, 0x00, 0x00,
  0x10, 0x00, 0x00, 0x00, 0x01, 0x00, 0x00, 0x00, 0xe3, 0xff, 0xff, 0xff,
  0xff, 0xff, 0xff, 0xff, 0x01, 0x00, 0x00, 0x00, 0x96, 0x28, 0x92, 0x3c,
  0x1d, 0x00, 0x00, 0x00, 0x6d, 0x6f, 0x64, 0x65, 0x6c, 0x5f, 0x33, 0x2f,
  0x6d, 0x61, 0x78, 0x5f, 0x70, 0x6f, 0x6f, 0x6c, 0x69, 0x6e, 0x67, 0x32,
  0x64, 0x2f, 0x4d, 0x61, 0x78, 0x50, 0x6f, 0x6f, 0x6c, 0x00, 0x00, 0x00,
  0x04, 0x00, 0x00, 0x00, 0x01, 0x00, 0x00, 0x00, 0x06, 0x00, 0x00, 0x00,
  0x06, 0x00, 0x00, 0x00, 0x08, 0x00, 0x00, 0x00, 0x00, 0xfc, 0xff, 0xff,
  0x18, 0x00, 0x00, 0x00, 0x28, 0x00, 0x00, 0x00, 0x44, 0x00, 0x00, 0x00,
  0x07, 0x00, 0x00, 0x00, 0x00, 0x00, 0x00, 0x09, 0x9c, 0x00, 0x00, 0x00,
  0x04, 0x00, 0x00, 0x00, 0xff, 0xff, 0xff, 0xff, 0x0d, 0x00, 0x00, 0x00,
  0x0d, 0x00, 0x00, 0x00, 0x08, 0x00, 0x00, 0x00, 0xec, 0xfb, 0xff, 0xff,
  0x08, 0x00, 0x00, 0x00, 0x10, 0x00, 0x00, 0x00, 0x01, 0x00, 0x00, 0x00,
  0xe3, 0xff, 0xff, 0xff, 0xff, 0xff, 0xff, 0xff, 0x01, 0x00, 0x00, 0x00,
  0x96, 0x28, 0x92, 0x3c, 0x5f, 0x00, 0x00, 0x00, 0x6d, 0x6f, 0x64, 0x65,
  0x6c, 0x5f, 0x33, 0x2f, 0x71, 0x75, 0x61, 0x6e, 0x74, 0x5f, 0x63, 0x6f,
  0x6e, 0x76, 0x32, 0x64, 0x2f, 0x52, 0x65, 0x6c, 0x75, 0x3b, 0x6d, 0x6f,
  0x64, 0x65, 0x6c, 0x5f, 0x33, 0x2f, 0x71, 0x75, 0x61, 0x6e, 0x74, 0x5f,
  0x63, 0x6f, 0x6e, 0x76, 0x32, 0x64, 0x2f, 0x42, 0x69, 0x61, 0x73, 0x41,
  0x64, 0x64, 0x3b, 0x6d, 0x6f, 0x64, 0x65, 0x6c, 0x5f, 0x33, 0x2f, 0x71,
  0x75, 0x61, 0x6e, 0x74, 0x5f, 0x63, 0x6f, 0x6e, 0x76, 0x32, 0x64, 0x2f,
  0x43, 0x6f, 0x6e, 0x76, 0x32, 0x44, 0x3b, 0x63, 0x6f, 0x6e, 0x76, 0x32,
  0x64, 0x2f, 0x62, 0x69, 0x61, 0x73, 0x31, 0x00, 0x04, 0x00, 0x00, 0x00,
  0x01, 0x00, 0x00, 0x00, 0x0d, 0x00, 0x00, 0x00, 0x0d, 0x00, 0x00, 0x00,
  0x08, 0x00, 0x00, 0x00, 0xc8, 0xfc, 0xff, 0xff, 0x18, 0x00, 0x00, 0x00,
  0x28, 0x00, 0x00, 0x00, 0x44, 0x00, 0x00, 0x00, 0x06, 0x00, 0x00, 0x00,
  0x00, 0x00, 0x00, 0x09, 0x6c, 0x00, 0x00, 0x00, 0x04, 0x00, 0x00, 0x00,
  0xff, 0xff, 0xff, 0xff, 0x20, 0x00, 0x00, 0x00, 0x20, 0x00, 0x00, 0x00,
  0x01, 0x00, 0x00, 0x00, 0xb4, 0xfc, 0xff, 0xff, 0x08, 0x00, 0x00, 0x00,
  0x10, 0x00, 0x00, 0x00, 0x01, 0x00, 0x00, 0x00, 0x80, 0xff, 0xff, 0xff,
  0xff, 0xff, 0xff, 0xff, 0x01, 0x00, 0x00, 0x00, 0x02, 0x02, 0xc2, 0x3d,
  0x2d, 0x00, 0x00, 0x00, 0x6d, 0x6f, 0x64, 0x65, 0x6c, 0x5f, 0x33, 0x2f,
  0x72, 0x65, 0x73, 0x69, 0x7a, 0x69, 0x6e, 0x67, 0x2f, 0x72, 0x65, 0x73,
  0x69, 0x7a, 0x65, 0x2f, 0x52, 0x65, 0x73, 0x69, 0x7a, 0x65, 0x4e, 0x65,
  0x61, 0x72, 0x65, 0x73, 0x74, 0x4e, 0x65, 0x69, 0x67, 0x68, 0x62, 0x6f,
  0x72, 0x00, 0x00, 0x00, 0x04, 0x00, 0x00, 0x00, 0x01, 0x00, 0x00, 0x00,
  0x20, 0x00, 0x00, 0x00, 0x20, 0x00, 0x00, 0x00, 0x01, 0x00, 0x00, 0x00,
  0xba, 0xfd, 0xff, 0xff, 0x14, 0x00, 0x00, 0x00, 0x84, 0x00, 0x00, 0x00,
  0x05, 0x00, 0x00, 0x00, 0x00, 0x00, 0x00, 0x02, 0xdc, 0x00, 0x00, 0x00,
  0x34, 0xfd, 0xff, 0xff, 0x08, 0x00, 0x00, 0x00, 0x48, 0x00, 0x00, 0x00,
  0x08, 0x00, 0x00, 0x00, 0x00, 0x00, 0x00, 0x00, 0x00, 0x00, 0x00, 0x00,
  0x00, 0x00, 0x00, 0x00, 0x00, 0x00, 0x00, 0x00, 0x00, 0x00, 0x00, 0x00,
  0x00, 0x00, 0x00, 0x00, 0x00, 0x00, 0x00, 0x00, 0x00, 0x00, 0x00, 0x00,
  0x00, 0x00, 0x00, 0x00, 0x00, 0x00, 0x00, 0x00, 0x00, 0x00, 0x00, 0x00,
  0x00, 0x00, 0x00, 0x00, 0x00, 0x00, 0x00, 0x00, 0x00, 0x00, 0x00, 0x00,
  0x00, 0x00, 0x00, 0x00, 0x00, 0x00, 0x00, 0x00, 0x08, 0x00, 0x00, 0x00,
  0x6c, 0x83, 0x24, 0x39, 0x76, 0xb9, 0x26, 0x39, 0xcd, 0xbe, 0x33, 0x39,
  0x6f, 0x3a, 0x45, 0x39, 0xa7, 0x12, 0x16, 0x39, 0x76, 0x2e, 0x1a, 0x39,
  0x46, 0x30, 0x66, 0x39, 0xf4, 0xc3, 0x71, 0x39, 0x5e, 0x00, 0x00, 0x00,
  0x6d, 0x6f, 0x64, 0x65, 0x6c, 0x5f, 0x33, 0x2f, 0x71, 0x75, 0x61, 0x6e,
  0x74, 0x5f, 0x63, 0x6f, 0x6e, 0x76, 0x32, 0x64, 0x2f, 0x52, 0x65, 0x6c,
  0x75, 0x3b, 0x6d, 0x6f, 0x64, 0x65, 0x6c, 0x5f, 0x33, 0x2f, 0x71, 0x75,
  0x61, 0x6e, 0x74, 0x5f, 0x63, 0x6f, 0x6e, 0x76, 0x32, 0x64, 0x2f, 0x42,
  0x69, 0x61, 0x73, 0x41, 0x64, 0x64, 0x3b, 0x6d, 0x6f, 0x64, 0x65, 0x6c,
  0x5f, 0x33, 0x2f, 0x71, 0x75, 0x61, 0x6e, 0x74, 0x5f, 0x63, 0x6f, 0x6e,
  0x76, 0x32, 0x64, 0x2f, 0x43, 0x6f, 0x6e, 0x76, 0x32, 0x44, 0x3b, 0x63,
  0x6f, 0x6e, 0x76, 0x32, 0x64, 0x2f, 0x62, 0x69, 0x61, 0x73, 0x00, 0x00,
  0x01, 0x00, 0x00, 0x00, 0x08, 0x00, 0x00, 0x00, 0xb2, 0xfe, 0xff, 0xff,
  0x14, 0x00, 0x00, 0x00, 0x88, 0x00, 0x00, 0x00, 0x04, 0x00, 0x00, 0x00,
  0x00, 0x00, 0x00, 0x09, 0xe4, 0x00, 0x00, 0x00, 0x2c, 0xfe, 0xff, 0xff,
  0x08, 0x00, 0x00, 0x00, 0x4c, 0x00, 0x00, 0x00, 0x08, 0x00, 0x00, 0x00,
  0x00, 0x00, 0x00, 0x00, 0x00, 0x00, 0x00, 0x00, 0x00, 0x00, 0x00, 0x00,
  0x00, 0x00, 0x00, 0x00, 0x00, 0x00, 0x00, 0x00, 0x00, 0x00, 0x00, 0x00,
  0x00, 0x00, 0x00, 0x00, 0x00, 0x00, 0x00, 0x00, 0x00, 0x00, 0x00, 0x00,
  0x00, 0x00, 0x00, 0x00, 0x00, 0x00, 0x00, 0x00, 0x00, 0x00, 0x00, 0x00,
  0x00, 0x00, 0x00, 0x00, 0x00, 0x00, 0x00, 0x00, 0x00, 0x00, 0x00, 0x00,
  0x00, 0x00, 0x00, 0x00, 0x00, 0x00, 0x00, 0x00, 0x08, 0x00, 0x00, 0x00,
  0xbe, 0x14, 0xd9, 0x3a, 0xa6, 0xff, 0xdb, 0x3a, 0x1b, 0x2e, 0xed, 0x3a,
  0xee, 0x1f, 0x02, 0x3b, 0xbb, 0x06, 0xc6, 0x3a, 0xa0, 0x72, 0xcb, 0x3a,
  0xf0, 0xde, 0x17, 0x3b, 0x47, 0x82, 0x1f, 0x3b, 0x61, 0x00, 0x00, 0x00,
  0x6d, 0x6f, 0x64, 0x65, 0x6c, 0x5f, 0x33, 0x2f, 0x71, 0x75, 0x61, 0x6e,
  0x74, 0x5f, 0x63, 0x6f, 0x6e, 0x76, 0x32, 0x64, 0x2f, 0x43, 0x6f, 0x6e,
  0x76, 0x32, 0x44, 0x3b, 0x6d, 0x6f, 0x64, 0x65, 0x6c, 0x5f, 0x33, 0x2f,
  0x71, 0x75, 0x61, 0x6e, 0x74, 0x5f, 0x63, 0x6f, 0x6e, 0x76, 0x32, 0x64,
  0x2f, 0x4c, 0x61, 0x73, 0x74, 0x56, 0x61, 0x6c, 0x75, 0x65, 0x51, 0x75,
  0x61, 0x6e, 0x74, 0x2f, 0x46, 0x61, 0x6b, 0x65, 0x51, 0x75, 0x61, 0x6e,
  0x74, 0x57, 0x69, 0x74, 0x68, 0x4d, 0x69, 0x6e, 0x4d, 0x61, 0x78, 0x56,
  0x61, 0x72, 0x73, 0x50, 0x65, 0x72, 0x43, 0x68, 0x61, 0x6e, 0x6e, 0x65,
  0x6c, 0x00, 0x00, 0x00, 0x04, 0x00, 0x00, 0x00, 0x08, 0x00, 0x00, 0x00,
  0x08, 0x00, 0x00, 0x00, 0x08, 0x00, 0x00, 0x00, 0x01, 0x00, 0x00, 0x00,
  0xbe, 0xff, 0xff, 0xff, 0x14, 0x00, 0x00, 0x00, 0x14, 0x00, 0x00, 0x00,
  0x03, 0x00, 0x00, 0x00, 0x00, 0x00, 0x00, 0x02, 0x24, 0x00, 0x00, 0x00,
  0xb0, 0xff, 0xff, 0xff, 0x15, 0x00, 0x00, 0x00, 0x6d, 0x6f, 0x64, 0x65,
  0x6c, 0x5f, 0x33, 0x2f, 0x66, 0x6c, 0x61, 0x74, 0x74, 0x65, 0x6e, 0x2f,
  0x43, 0x6f, 0x6e, 0x73, 0x74, 0x00, 0x00, 0x00, 0x01, 0x00, 0x00, 0x00,
  0x02, 0x00, 0x00, 0x00, 0x00, 0x00, 0x0e, 0x00, 0x18, 0x00, 0x14, 0x00,
  0x13, 0x00, 0x0c, 0x00, 0x08, 0x00, 0x04, 0x00, 0x0e, 0x00, 0x00, 0x00,
  0x18, 0x00, 0x00, 0x00, 0x18, 0x00, 0x00, 0x00, 0x02, 0x00, 0x00, 0x00,
  0x00, 0x00, 0x00, 0x02, 0x30, 0x00, 0x00, 0x00, 0x04, 0x00, 0x04, 0x00,
  0x04, 0x00, 0x00, 0x00, 0x1c, 0x00, 0x00, 0x00, 0x6d, 0x6f, 0x64, 0x65,
  0x6c, 0x5f, 0x33, 0x2f, 0x72, 0x65, 0x73, 0x69, 0x7a, 0x69, 0x6e, 0x67,
  0x2f, 0x72, 0x65, 0x73, 0x69, 0x7a, 0x65, 0x2f, 0x73, 0x69, 0x7a, 0x65,
  0x00, 0x00, 0x00, 0x00, 0x01, 0x00, 0x00, 0x00, 0x02, 0x00, 0x00, 0x00,
  0x14, 0x00, 0x1c, 0x00, 0x18, 0x00, 0x17, 0x00, 0x10, 0x00, 0x0c, 0x00,
  0x08, 0x00, 0x00, 0x00, 0x00, 0x00, 0x04, 0x00, 0x14, 0x00, 0x00, 0x00,
  0x18, 0x00, 0x00, 0x00, 0x34, 0x00, 0x00, 0x00, 0x54, 0x00, 0x00, 0x00,
  0x01, 0x00, 0x00, 0x00, 0x00, 0x00, 0x00, 0x09, 0x68, 0x00, 0x00, 0x00,
  0x04, 0x00, 0x00, 0x00, 0xff, 0xff, 0xff, 0xff, 0x7c, 0x00, 0x00, 0x00,
  0x81, 0x00, 0x00, 0x00, 0x01, 0x00, 0x00, 0x00, 0x0c, 0x00, 0x0c, 0x00,
  0x00, 0x00, 0x00, 0x00, 0x08, 0x00, 0x04, 0x00, 0x0c, 0x00, 0x00, 0x00,
  0x08, 0x00, 0x00, 0x00, 0x14, 0x00, 0x00, 0x00, 0x01, 0x00, 0x00, 0x00,
  0x80, 0xff, 0xff, 0xff, 0xff, 0xff, 0xff, 0xff, 0x00, 0x00, 0x00, 0x00,
  0x01, 0x00, 0x00, 0x00, 0x02, 0x02, 0xc2, 0x3d, 0x19, 0x00, 0x00, 0x00,
  0x73, 0x65, 0x72, 0x76, 0x69, 0x6e, 0x67, 0x5f, 0x64, 0x65, 0x66, 0x61,
  0x75, 0x6c, 0x74, 0x5f, 0x69, 0x6e, 0x70, 0x75, 0x74, 0x5f, 0x31, 0x3a,
  0x30, 0x00, 0x00, 0x00, 0x04, 0x00, 0x00, 0x00, 0x01, 0x00, 0x00, 0x00,
  0x7c, 0x00, 0x00, 0x00, 0x81, 0x00, 0x00, 0x00, 0x01, 0x00, 0x00, 0x00,
  0x06, 0x00, 0x00, 0x00, 0x7c, 0x00, 0x00, 0x00, 0x5c, 0x00, 0x00, 0x00,
  0x48, 0x00, 0x00, 0x00, 0x38, 0x00, 0x00, 0x00, 0x18, 0x00, 0x00, 0x00,
  0x04, 0x00, 0x00, 0x00, 0xa8, 0xff, 0xff, 0xff, 0x19, 0x00, 0x00, 0x00,
  0x02, 0x00, 0x00, 0x00, 0x00, 0x00, 0x00, 0x19, 0xb8, 0xff, 0xff, 0xff,
  0x09, 0x00, 0x00, 0x00, 0x04, 0x00, 0x00, 0x00, 0x00, 0x00, 0x00, 0x09,
  0x0c, 0x00, 0x0c, 0x00, 0x0b, 0x00, 0x00, 0x00, 0x00, 0x00, 0x04, 0x00,
  0x0c, 0x00, 0x00, 0x00, 0x16, 0x00, 0x00, 0x00, 0x00, 0x00, 0x00, 0x16,
  0xe0, 0xff, 0xff, 0xff, 0x11, 0x00, 0x00, 0x00, 0x02, 0x00, 0x00, 0x00,
  0x00, 0x00, 0x00, 0x11, 0xf0, 0xff, 0xff, 0xff, 0x03, 0x00, 0x00, 0x00,
  0x03, 0x00, 0x00, 0x00, 0x00, 0x00, 0x00, 0x03, 0x0c, 0x00, 0x10, 0x00,
  0x0f, 0x00, 0x00, 0x00, 0x08, 0x00, 0x04, 0x00, 0x0c, 0x00, 0x00, 0x00,
  0x61, 0x00, 0x00, 0x00, 0x03, 0x00, 0x00, 0x00, 0x00, 0x00, 0x00, 0x61
};
