alignas(8) const unsigned char tflite_model[] = {
  0x20, 0x00, 0x00, 0x00, 0x54, 0x46, 0x4c, 0x33, 0x00, 0x00, 0x00, 0x00,
  0x14, 0x00, 0x20, 0x00, 0x1c, 0x00, 0x18, 0x00, 0x14, 0x00, 0x10, 0x00,
  0x0c, 0x00, 0x00, 0x00, 0x08, 0x00, 0x04, 0x00, 0x14, 0x00, 0x00, 0x00,
  0x1c, 0x00, 0x00, 0x00, 0x88, 0x00, 0x00, 0x00, 0xb8, 0x00, 0x00, 0x00,
  0x38, 0x08, 0x00, 0x00, 0x48, 0x08, 0x00, 0x00, 0x28, 0x12, 0x00, 0x00,
  0x03, 0x00, 0x00, 0x00, 0x01, 0x00, 0x00, 0x00, 0x04, 0x00, 0x00, 0x00,
  0x06, 0xf7, 0xff, 0xff, 0x0c, 0x00, 0x00, 0x00, 0x1c, 0x00, 0x00, 0x00,
  0x40, 0x00, 0x00, 0x00, 0x0f, 0x00, 0x00, 0x00, 0x73, 0x65, 0x72, 0x76,
  0x69, 0x6e, 0x67, 0x5f, 0x64, 0x65, 0x66, 0x61, 0x75, 0x6c, 0x74, 0x00,
  0x01, 0x00, 0x00, 0x00, 0x04, 0x00, 0x00, 0x00, 0xbc, 0xff, 0xff, 0xff,
  0x0c, 0x00, 0x00, 0x00, 0x04, 0x00, 0x00, 0x00, 0x0d, 0x00, 0x00, 0x00,
  0x71, 0x75, 0x61, 0x6e, 0x74, 0x5f, 0x64, 0x65, 0x6e, 0x73, 0x65, 0x5f,
  0x31, 0x00, 0x00, 0x00, 0x01, 0x00, 0x00, 0x00, 0x04, 0x00, 0x00, 0x00,
  0xae, 0xf7, 0xff, 0xff, 0x04, 0x00, 0x00, 0x00, 0x07, 0x00, 0x00, 0x00,
  0x69, 0x6e, 0x70, 0x75, 0x74, 0x5f, 0x31, 0x00, 0x01, 0x00, 0x00, 0x00,
  0x0c, 0x00, 0x00, 0x00, 0x08, 0x00, 0x0c, 0x00, 0x08, 0x00, 0x04, 0x00,
  0x08, 0x00, 0x00, 0x00, 0x0e, 0x00, 0x00, 0x00, 0x04, 0x00, 0x00, 0x00,
  0x13, 0x00, 0x00, 0x00, 0x6d, 0x69, 0x6e, 0x5f, 0x72, 0x75, 0x6e, 0x74,
  0x69, 0x6d, 0x65, 0x5f, 0x76, 0x65, 0x72, 0x73, 0x69, 0x6f, 0x6e, 0x00,
  0x0f, 0x00, 0x00, 0x00, 0x7c, 0x07, 0x00, 0x00, 0x74, 0x07, 0x00, 0x00,
  0x5c, 0x07, 0x00, 0x00, 0x44, 0x07, 0x00, 0x00, 0x34, 0x05, 0x00, 0x00,
  0x04, 0x05, 0x00, 0x00, 0xfc, 0x04, 0x00, 0x00, 0xf4, 0x04, 0x00, 0x00,
  0xec, 0x04, 0x00, 0x00, 0xe4, 0x04, 0x00, 0x00, 0x54, 0x00, 0x00, 0x00,
  0x34, 0x00, 0x00, 0x00, 0x2c, 0x00, 0x00, 0x00, 0x24, 0x00, 0x00, 0x00,
  0x04, 0x00, 0x00, 0x00, 0x36, 0xf8, 0xff, 0xff, 0x04, 0x00, 0x00, 0x00,
  0x10, 0x00, 0x00, 0x00, 0x32, 0x2e, 0x33, 0x2e, 0x30, 0x00, 0x00, 0x00,
  0x00, 0x00, 0x00, 0x00, 0x00, 0x00, 0x00, 0x00, 0xbc, 0xef, 0xff, 0xff,
  0xc0, 0xef, 0xff, 0xff, 0x5a, 0xf8, 0xff, 0xff, 0x04, 0x00, 0x00, 0x00,
  0x10, 0x00, 0x00, 0x00, 0x92, 0xfd, 0xff, 0xff, 0x11, 0xfd, 0xff, 0xff,
  0x98, 0xff, 0xff, 0xff, 0xdc, 0x06, 0x00, 0x00, 0x76, 0xf8, 0xff, 0xff,
  0x04, 0x00, 0x00, 0x00, 0x80, 0x04, 0x00, 0x00, 0xfd, 0x00, 0xf2, 0x00,
  0xe8, 0xf8, 0x00, 0xfa, 0xfd, 0xfd, 0xfd, 0xfe, 0xf5, 0xf7, 0x00, 0xf0,
  0x03, 0xff, 0x01, 0x00, 0xf8, 0xfd, 0xfe, 0xfe, 0xff, 0xfc, 0xfd, 0xfc,
  0x00, 0xfd, 0xfb, 0x08, 0xfd, 0xfc, 0xf9, 0xfd, 0xfd, 0x04, 0xff, 0xfd,
  0xf6, 0xfb, 0xfa, 0xfc, 0xff, 0xfe, 0x01, 0xfd, 0xe5, 0xfa, 0xe3, 0x0f,
  0xf4, 0xf2, 0x06, 0xf4, 0x01, 0x00, 0xf5, 0x04, 0xe9, 0xf9, 0xff, 0xfa,
  0x06, 0xfb, 0x05, 0xfb, 0xfe, 0x03, 0xfb, 0x01, 0x05, 0xfe, 0xfd, 0xfc,
  0xfa, 0x02, 0xff, 0x02, 0xff, 0xfd, 0xfa, 0xff, 0xfc, 0xfa, 0xfc, 0x02,
  0x02, 0xfb, 0xfb, 0xff, 0xf9, 0xfd, 0xf8, 0xf9, 0xdd, 0x02, 0xea, 0xfc,
  0xef, 0xef, 0xff, 0xf1, 0x02, 0xf8, 0x18, 0xe8, 0xe5, 0x06, 0xf6, 0xf6,
  0xed, 0xfb, 0xfd, 0xfc, 0xff, 0xf6, 0xfc, 0xf4, 0xfd, 0x00, 0xf6, 0xf7,
  0xec, 0xfa, 0xff, 0xf2, 0xef, 0xfb, 0xf8, 0xfe, 0xfb, 0xf5, 0xfe, 0xff,
  0x04, 0xff, 0xf5, 0xf9, 0xf4, 0xf3, 0xfe, 0x01, 0xed, 0x0f, 0xe7, 0xf1,
  0xed, 0xf7, 0x0d, 0xf8, 0xf9, 0xfc, 0x0d, 0xe9, 0xfc, 0xf5, 0xfa, 0x07,
  0x07, 0xfe, 0x0b, 0x04, 0xf8, 0xf4, 0xfb, 0xe9, 0xf9, 0xfb, 0xf0, 0xfc,
  0xf2, 0xf6, 0xfe, 0xf9, 0xfc, 0xff, 0xf9, 0xfc, 0xf5, 0xf6, 0xfd, 0xf0,
  0xfc, 0xfd, 0xf8, 0xfd, 0xf7, 0xfc, 0xfe, 0xfd, 0xfc, 0xff, 0xf6, 0xd7,
  0xec, 0xe5, 0x08, 0x03, 0x01, 0x05, 0x0c, 0xee, 0x05, 0xf6, 0xf6, 0xf1,
  0xe6, 0xfb, 0x15, 0x02, 0xf8, 0x07, 0x03, 0x05, 0x03, 0xfd, 0x00, 0x02,
  0x04, 0xfe, 0x00, 0x0a, 0xfd, 0x01, 0xfd, 0xff, 0xfb, 0xfc, 0xfb, 0xfc,
  0x00, 0xfa, 0xfc, 0xf9, 0xf9, 0xfb, 0xfa, 0xfb, 0xf3, 0xf7, 0xf3, 0xca,
  0xeb, 0xf4, 0xed, 0xd0, 0x02, 0x00, 0x0c, 0xfe, 0x01, 0x02, 0x01, 0x03,
  0x01, 0xfe, 0x07, 0x03, 0xfd, 0xf8, 0xfb, 0x02, 0x04, 0xfe, 0xff, 0xfb,
  0x03, 0x04, 0xfe, 0x03, 0x00, 0xfe, 0xfb, 0xfa, 0xfb, 0x00, 0xfc, 0x01,
  0xfb, 0xfd, 0xfc, 0x00, 0xf2, 0xf8, 0xfb, 0xfb, 0xfb, 0xfb, 0xf9, 0xfc,
  0xeb, 0x05, 0xfd, 0xe5, 0x0e, 0xff, 0x07, 0x09, 0x00, 0x09, 0xff, 0x07,
  0xfa, 0xfb, 0xf9, 0xfa, 0xfa, 0xf8, 0xfb, 0xfe, 0x05, 0xfb, 0xfe, 0xf9,
  0xf3, 0xf3, 0xfb, 0xfd, 0x02, 0xff, 0xfb, 0xfb, 0xfd, 0xfd, 0xfa, 0xef,
  0x00, 0xfa, 0x00, 0xfb, 0xf4, 0xfa, 0xf7, 0xf7, 0xfe, 0x07, 0x01, 0x04,
  0xf6, 0xea, 0xf9, 0xf3, 0xfd, 0xfe, 0xea, 0xfe, 0xe9, 0x0a, 0xfd, 0xf7,
  0xfb, 0xfa, 0xf8, 0x01, 0xfa, 0xfd, 0xff, 0x07, 0xfc, 0x01, 0x04, 0xfd,
  0xff, 0xfd, 0xfe, 0xfe, 0xfe, 0xfe, 0xfe, 0xf9, 0xfa, 0xf6, 0xfc, 0x05,
  0x01, 0x00, 0x00, 0xfb, 0x00, 0x01, 0xf8, 0xf3, 0xec, 0xfb, 0xee, 0xe5,
  0xf3, 0xde, 0x02, 0xfe, 0xc6, 0xf7, 0xaf, 0xfe, 0x03, 0xe5, 0x07, 0xf3,
  0x01, 0xf7, 0xe8, 0xf9, 0xec, 0xfe, 0xf5, 0x04, 0xef, 0xf9, 0xf3, 0xf1,
  0xef, 0xf0, 0xfd, 0xf4, 0xfb, 0xfc, 0xfc, 0xf7, 0xfb, 0xf6, 0xfb, 0xf7,
  0xf1, 0xfc, 0xf9, 0xfa, 0xf9, 0x02, 0xfb, 0xfa, 0xf2, 0xf9, 0xfc, 0xe0,
  0xf4, 0xf9, 0xff, 0xef, 0x00, 0xff, 0xf6, 0x01, 0xed, 0xfa, 0xf3, 0xe2,
  0xea, 0xfd, 0xeb, 0xf1, 0xf7, 0xfe, 0xfc, 0xf7, 0xf1, 0xfa, 0xf0, 0xfd,
  0xef, 0xf2, 0xf7, 0xf3, 0xf2, 0xfc, 0xf9, 0xfe, 0xf6, 0xfe, 0xfc, 0xfd,
  0xfa, 0xfe, 0xf1, 0xfb, 0xf7, 0xf7, 0xf6, 0xfa, 0xea, 0xfc, 0xf2, 0xe7,
  0xfb, 0xf6, 0xfb, 0xf7, 0xe0, 0xfc, 0xf2, 0x11, 0xf3, 0x00, 0xf6, 0xfe,
  0x0d, 0x00, 0xf6, 0xf7, 0x09, 0x0c, 0xfd, 0xed, 0xfa, 0xfd, 0xf9, 0xff,
  0xf4, 0xfa, 0xfe, 0xf9, 0x04, 0xfd, 0x02, 0xff, 0xf5, 0x00, 0x00, 0x03,
  0x01, 0xfc, 0x01, 0xfd, 0xfe, 0x04, 0xf8, 0xff, 0xf5, 0xfa, 0xe4, 0xf7,
  0xee, 0xe4, 0x10, 0x11, 0xea, 0xfd, 0xe9, 0xf9, 0xe2, 0xeb, 0xfd, 0xed,
  0xfb, 0xfd, 0xf8, 0xfd, 0xf8, 0x04, 0xff, 0xff, 0x01, 0xfc, 0xfb, 0xf9,
  0xf4, 0xfc, 0xff, 0xfc, 0x04, 0x01, 0x03, 0xfe, 0xf6, 0xfd, 0xfa, 0x03,
  0x06, 0xf9, 0x02, 0xfb, 0xfa, 0x05, 0x00, 0x07, 0xc0, 0xf9, 0xf0, 0xdf,
  0xd7, 0xbf, 0xef, 0xe1, 0xe3, 0xfb, 0x00, 0xf9, 0xdd, 0xf4, 0xfb, 0xe2,
  0xed, 0xfd, 0x0b, 0x01, 0xeb, 0x06, 0x01, 0xf0, 0xf3, 0xfc, 0x0b, 0xff,
  0xed, 0x06, 0xfe, 0xf3, 0xf4, 0xfe, 0x06, 0xf7, 0xef, 0x06, 0xfe, 0x01,
  0xf9, 0xfa, 0x07, 0xff, 0xf8, 0x06, 0xfd, 0x01, 0xf2, 0xfe, 0xef, 0xd5,
  0xe9, 0xe1, 0xfc, 0xed, 0xdb, 0xfe, 0x15, 0xf7, 0xfc, 0xf4, 0xfa, 0xe5,
  0xe5, 0xfd, 0x06, 0x00, 0xe4, 0x01, 0xf8, 0xed, 0xef, 0xfb, 0x09, 0xfa,
  0xed, 0x00, 0xfa, 0xee, 0xfb, 0xfb, 0x08, 0xfe, 0xef, 0x07, 0xfa, 0xf7,
  0xfc, 0x00, 0x0b, 0xfb, 0xfd, 0x06, 0xfe, 0xf9, 0xf5, 0x05, 0xfe, 0xf9,
  0xf1, 0xff, 0x03, 0xf6, 0xfe, 0x02, 0x05, 0x06, 0xf8, 0xfe, 0xfb, 0xfd,
  0xf1, 0xfb, 0x0e, 0x05, 0xeb, 0x05, 0x03, 0xf0, 0x00, 0xfc, 0x15, 0x04,
  0xff, 0x07, 0x01, 0xfd, 0xf5, 0xfd, 0x0a, 0x06, 0xf6, 0x0b, 0xfe, 0xfb,
  0xfd, 0xfa, 0x0d, 0x03, 0xf9, 0x14, 0x00, 0xfc, 0xf0, 0xfe, 0xf4, 0x01,
  0xf6, 0xf6, 0xfa, 0xf6, 0xf5, 0xfe, 0xfc, 0x05, 0x03, 0x05, 0x06, 0xf3,
  0xf1, 0xfb, 0x08, 0x00, 0xf6, 0x04, 0xfe, 0xfb, 0x02, 0xfd, 0x13, 0xfd,
  0xfd, 0x11, 0xfb, 0xf8, 0xf9, 0xfc, 0x0e, 0x03, 0xf4, 0x08, 0xfc, 0xf9,
  0xfb, 0xfb, 0x0f, 0xfb, 0xf4, 0x08, 0xff, 0xfc, 0xf2, 0x02, 0xf8, 0x0d,
  0xf5, 0xf3, 0x03, 0xfb, 0xf7, 0xfe, 0xfd, 0xf6, 0xf2, 0xfb, 0x02, 0xf2,
  0xf0, 0xfd, 0xf8, 0xfb, 0xea, 0xfd, 0xfb, 0xed, 0xe9, 0xfc, 0x01, 0xf9,
  0xf1, 0x00, 0xff, 0xea, 0xf3, 0xfc, 0x06, 0xfc, 0xed, 0x03, 0x01, 0xf1,
  0xf7, 0xfa, 0x03, 0xfc, 0xee, 0x05, 0x03, 0xf9, 0xe1, 0x00, 0xf6, 0xfe,
  0xe8, 0x07, 0x05, 0xf6, 0xe7, 0xfc, 0x01, 0xfa, 0xe3, 0xf7, 0xf8, 0xe0,
  0xee, 0x00, 0x09, 0xfb, 0xf2, 0x00, 0xfd, 0xee, 0xee, 0xfd, 0x03, 0x01,
  0xee, 0x03, 0xfc, 0xed, 0xf0, 0xfa, 0x07, 0xfc, 0xe9, 0x01, 0xfe, 0xec,
  0xf8, 0xfe, 0x09, 0xfe, 0xf4, 0x05, 0xfc, 0xf0, 0x12, 0x0d, 0xf8, 0x10,
  0x1d, 0x13, 0x0e, 0x13, 0xfd, 0x0a, 0x00, 0x0d, 0x10, 0xff, 0x0c, 0x06,
  0x03, 0x08, 0x02, 0x0c, 0x0e, 0x02, 0x10, 0x06, 0x04, 0x07, 0x06, 0x0a,
  0x0d, 0x01, 0x0b, 0xf9, 0xff, 0x0b, 0x02, 0x0c, 0x0d, 0xfa, 0x0f, 0x07,
  0x02, 0x09, 0x06, 0x11, 0x10, 0x09, 0x0e, 0x06, 0xbe, 0xf7, 0xde, 0xf4,
  0xc2, 0x13, 0xe5, 0x92, 0xfe, 0x09, 0xfd, 0x0f, 0x0e, 0x01, 0x09, 0xfb,
  0x02, 0x08, 0x01, 0x0c, 0x10, 0xff, 0x0d, 0xfe, 0x01, 0x07, 0x02, 0x10,
  0x0e, 0x00, 0x0d, 0xfe, 0x03, 0x0b, 0x01, 0x06, 0x0c, 0x03, 0x09, 0xfb,
  0x02, 0x0b, 0xfa, 0x0a, 0x0a, 0xff, 0x0b, 0x0a, 0xad, 0xe4, 0xc3, 0xd4,
  0x8a, 0xb9, 0xbb, 0x98, 0xee, 0x06, 0xe9, 0x06, 0xfc, 0xf9, 0x07, 0xea,
  0xfe, 0x06, 0xfe, 0x0a, 0x0d, 0xfe, 0x0d, 0xfe, 0x01, 0x0a, 0x04, 0x11,
  0x0f, 0xff, 0x0b, 0x03, 0x04, 0x0a, 0xfc, 0x07, 0x0e, 0x01, 0x0d, 0xf8,
  0x05, 0x08, 0xfc, 0x0b, 0x0e, 0xfd, 0x08, 0x03, 0x8a, 0xec, 0xb1, 0xd5,
  0x96, 0x81, 0xc5, 0xae, 0xeb, 0x06, 0xe6, 0x0a, 0xfd, 0xec, 0x06, 0xef,
  0xf9, 0x0a, 0xfb, 0x09, 0x0d, 0xff, 0x0d, 0xfe, 0x03, 0x09, 0xfa, 0x0e,
  0x06, 0xf9, 0x0a, 0xfe, 0x02, 0x0c, 0x01, 0x08, 0x10, 0xfd, 0x0f, 0x04,
  0x04, 0x0b, 0x06, 0x0f, 0x11, 0x00, 0x0a, 0x05, 0xb5, 0xf7, 0xbb, 0xe4,
  0xc9, 0xab, 0xca, 0x8a, 0xf4, 0x07, 0xea, 0x08, 0x01, 0xfc, 0x0c, 0xec,
  0xff, 0x0c, 0xf9, 0x0e, 0x0d, 0xfb, 0x10, 0x03, 0x02, 0x09, 0x03, 0x10,
  0x0d, 0x01, 0x0b, 0x05, 0xfe, 0x07, 0x01, 0x15, 0x0f, 0xfa, 0x0c, 0x02,
  0x05, 0x07, 0xf9, 0x0e, 0x12, 0xfb, 0x0f, 0x00, 0xee, 0x05, 0xeb, 0x0a,
  0xf6, 0xe7, 0xf8, 0xe5, 0xf7, 0x08, 0xf6, 0x13, 0x0a, 0x00, 0x0d, 0xf9,
  0xff, 0x07, 0xfc, 0x06, 0x09, 0x00, 0x10, 0xfe, 0xfe, 0x08, 0x05, 0x05,
  0x0b, 0xfb, 0x0c, 0xfb, 0xff, 0x08, 0xff, 0x0c, 0x12, 0x05, 0x10, 0x00,
  0x00, 0x05, 0x00, 0x0b, 0x0d, 0x00, 0x0a, 0xf6, 0x6c, 0xf4, 0xff, 0xff,
  0x70, 0xf4, 0xff, 0xff, 0x74, 0xf4, 0xff, 0xff, 0x78, 0xf4, 0xff, 0xff,
  0x12, 0xfd, 0xff, 0xff, 0x04, 0x00, 0x00, 0x00, 0x20, 0x00, 0x00, 0x00,
  0x7b, 0xff, 0xff, 0xff, 0x31, 0xff, 0xff, 0xff, 0x49, 0xfe, 0xff, 0xff,
  0xb6, 0xfc, 0xff, 0xff, 0xad, 0x00, 0x00, 0x00, 0x89, 0xfe, 0xff, 0xff,
  0x72, 0xfe, 0xff, 0xff, 0x01, 0xff, 0xff, 0xff, 0x3e, 0xfd, 0xff, 0xff,
  0x04, 0x00, 0x00, 0x00, 0x00, 0x02, 0x00, 0x00, 0xd7, 0xbc, 0x81, 0x0b,
  0x17, 0xe6, 0xfc, 0x02, 0x11, 0xe9, 0x92, 0x1a, 0x40, 0xc6, 0xce, 0xcf,
  0xfb, 0xe3, 0xd2, 0x30, 0xf8, 0xe4, 0xfc, 0x1e, 0xa8, 0x3b, 0xfa, 0x9c,
  0x27, 0x29, 0x03, 0x2f, 0xff, 0x42, 0x4b, 0xe6, 0x2b, 0x25, 0xb7, 0xc6,
  0xc8, 0xb2, 0x42, 0x1d, 0xe4, 0x1b, 0xde, 0x04, 0xbf, 0x84, 0xf6, 0x1c,
  0x35, 0x49, 0x46, 0xcf, 0x07, 0xf3, 0x1a, 0x23, 0xfa, 0xdc, 0x24, 0xf3,
  0x0b, 0x0c, 0x57, 0x15, 0xe7, 0x33, 0xfd, 0xed, 0x0f, 0x9a, 0xd9, 0x3b,
  0xe2, 0xf4, 0x07, 0xda, 0xc2, 0x96, 0xd6, 0x35, 0xcc, 0xfe, 0xbc, 0xeb,
  0xc1, 0xe8, 0xa4, 0xe3, 0xce, 0xf9, 0x0c, 0xdb, 0x53, 0xd3, 0xa8, 0x00,
  0xfc, 0x05, 0x07, 0x11, 0x08, 0x09, 0xbc, 0xc1, 0x4a, 0xfd, 0xde, 0x00,
  0xb0, 0xf4, 0x05, 0x0e, 0x10, 0x1c, 0x21, 0xea, 0x1b, 0x7f, 0xd7, 0xe4,
  0x1b, 0xfa, 0x09, 0x01, 0xc6, 0x8b, 0x62, 0xe8, 0xf7, 0x05, 0x21, 0x2a,
  0xea, 0x0f, 0x55, 0x9f, 0x9c, 0xfd, 0x2d, 0xfc, 0xd5, 0x44, 0x8e, 0xd4,
  0xe9, 0xcf, 0xc9, 0x15, 0xdd, 0x21, 0xe5, 0x24, 0x10, 0xea, 0xba, 0xed,
  0xfc, 0xe7, 0x1c, 0x62, 0x3e, 0x3b, 0x19, 0x37, 0xe6, 0x81, 0x3b, 0xee,
  0xcf, 0x0e, 0xdf, 0x5e, 0xc4, 0xfe, 0x56, 0xde, 0xb0, 0x38, 0xf9, 0x4e,
  0xdc, 0x13, 0xe6, 0x14, 0xeb, 0xe7, 0xe9, 0x0f, 0x01, 0x4f, 0xa8, 0xf4,
  0xd9, 0xbc, 0x0f, 0x07, 0xf2, 0x45, 0xad, 0x14, 0xe6, 0xaa, 0x4b, 0x27,
  0xda, 0x41, 0xc6, 0x12, 0xd2, 0x0a, 0xf6, 0xff, 0xf5, 0x36, 0x8c, 0x2d,
  0xc0, 0x0e, 0xfc, 0x09, 0xe7, 0x39, 0x81, 0x33, 0xf8, 0xdc, 0xc7, 0x6f,
  0xde, 0x3c, 0xd4, 0xf6, 0xc9, 0x29, 0x2f, 0x26, 0xf7, 0x08, 0x97, 0xf2,
  0x14, 0x01, 0x32, 0xfe, 0xf2, 0xfa, 0x8c, 0x1d, 0x76, 0x09, 0x36, 0xe6,
  0xb7, 0xac, 0x14, 0x5b, 0x58, 0x42, 0x41, 0xca, 0x2b, 0x07, 0x02, 0x20,
  0xe7, 0x27, 0xec, 0x01, 0xfa, 0x31, 0x7b, 0x4b, 0x2d, 0xf4, 0xf4, 0xef,
  0x9c, 0x0a, 0xef, 0x23, 0xf0, 0x94, 0xc9, 0xc5, 0xfa, 0xf9, 0xfa, 0x5b,
  0x5d, 0xdc, 0x96, 0xfd, 0xf6, 0x03, 0x00, 0x2c, 0xfc, 0xd8, 0x85, 0xe0,
  0xff, 0x3b, 0xfc, 0x23, 0xb0, 0xf0, 0xd7, 0xae, 0xde, 0x7f, 0xee, 0xf0,
  0xc9, 0xaa, 0xb7, 0xcc, 0xff, 0xf8, 0xf3, 0x00, 0x25, 0x25, 0x29, 0xdc,
  0x0b, 0xf3, 0x9b, 0xb8, 0x0b, 0x6b, 0xf9, 0xdb, 0x36, 0xee, 0x28, 0x13,
  0x3c, 0xd3, 0xbd, 0xe2, 0x71, 0x3b, 0x10, 0xd7, 0xc4, 0x36, 0xd3, 0xfb,
  0xcf, 0x1a, 0x2e, 0x4b, 0x2f, 0xf9, 0xf6, 0xe7, 0x0f, 0xa2, 0x53, 0xf3,
  0xc5, 0xef, 0x08, 0xcf, 0xb4, 0xab, 0xd7, 0xf3, 0x0d, 0x1b, 0x53, 0xdd,
  0xd3, 0x81, 0xce, 0x1a, 0x55, 0x02, 0x7f, 0xf7, 0x35, 0xbc, 0xd0, 0x57,
  0xef, 0x00, 0xfe, 0x34, 0x98, 0x1a, 0xad, 0x07, 0x0c, 0x01, 0xef, 0x46,
  0xc1, 0xaf, 0x06, 0xd3, 0xe2, 0x00, 0xe6, 0x41, 0xfd, 0xa4, 0xae, 0xf6,
  0xff, 0x00, 0xf0, 0x2d, 0xf8, 0xc7, 0xc0, 0x0a, 0x03, 0x00, 0xdd, 0x03,
  0x42, 0xfe, 0xc5, 0xd3, 0x13, 0x07, 0xd0, 0x05, 0xfd, 0x7f, 0xac, 0xe7,
  0x43, 0xcd, 0x32, 0xec, 0xc2, 0x09, 0x11, 0xff, 0x02, 0x33, 0xe5, 0x1b,
  0x58, 0x21, 0x9a, 0xc6, 0xf1, 0xe4, 0xf9, 0x18, 0xdf, 0x52, 0x2c, 0x16,
  0x2d, 0x1b, 0xec, 0xfc, 0xea, 0x90, 0x91, 0x19, 0x19, 0x33, 0x0e, 0xed,
  0xdb, 0xc3, 0x2c, 0xc2, 0x07, 0x06, 0x48, 0x31, 0x9a, 0xc5, 0xce, 0xba,
  0xef, 0x07, 0x4d, 0x0b, 0xaa, 0xf3, 0xed, 0xfd, 0xf4, 0xbe, 0xdf, 0xf8,
  0x0b, 0x44, 0xd0, 0xb8, 0xbc, 0xae, 0xbd, 0x24, 0x2c, 0x34, 0xe3, 0x7f,
  0xfa, 0x1a, 0xe9, 0x13, 0x4a, 0xff, 0xff, 0xff, 0x04, 0x00, 0x00, 0x00,
  0x08, 0x00, 0x00, 0x00, 0xff, 0xff, 0xff, 0xff, 0x20, 0x01, 0x00, 0x00,
  0x5e, 0xff, 0xff, 0xff, 0x04, 0x00, 0x00, 0x00, 0x08, 0x00, 0x00, 0x00,
  0x20, 0x00, 0x00, 0x00, 0x20, 0x00, 0x00, 0x00, 0xdc, 0xf6, 0xff, 0xff,
  0xe0, 0xf6, 0xff, 0xff, 0x0f, 0x00, 0x00, 0x00, 0x4d, 0x4c, 0x49, 0x52,
  0x20, 0x43, 0x6f, 0x6e, 0x76, 0x65, 0x72, 0x74, 0x65, 0x64, 0x2e, 0x00,
  0x01, 0x00, 0x00, 0x00, 0x14, 0x00, 0x00, 0x00, 0x00, 0x00, 0x0e, 0x00,
  0x18, 0x00, 0x14, 0x00, 0x10, 0x00, 0x0c, 0x00, 0x08, 0x00, 0x04, 0x00,
  0x0e, 0x00, 0x00, 0x00, 0x14, 0x00, 0x00, 0x00, 0x1c, 0x00, 0x00, 0x00,
  0xc8, 0x01, 0x00, 0x00, 0xcc, 0x01, 0x00, 0x00, 0xd0, 0x01, 0x00, 0x00,
  0x04, 0x00, 0x00, 0x00, 0x6d, 0x61, 0x69, 0x6e, 0x00, 0x00, 0x00, 0x00,
  0x06, 0x00, 0x00, 0x00, 0x74, 0x01, 0x00, 0x00, 0x10, 0x01, 0x00, 0x00,
  0xac, 0x00, 0x00, 0x00, 0x84, 0x00, 0x00, 0x00, 0x40, 0x00, 0x00, 0x00,
  0x04, 0x00, 0x00, 0x00, 0x12, 0xff, 0xff, 0xff, 0x1c, 0x00, 0x00, 0x00,
  0x00, 0x00, 0x00, 0x09, 0x1c, 0x00, 0x00, 0x00, 0x20, 0x00, 0x00, 0x00,
  0x05, 0x00, 0x00, 0x00, 0x00, 0x00, 0x06, 0x00, 0x08, 0x00, 0x04, 0x00,
  0x06, 0x00, 0x00, 0x00, 0x00, 0x00, 0x80, 0x3f, 0x01, 0x00, 0x00, 0x00,
  0x0c, 0x00, 0x00, 0x00, 0x01, 0x00, 0x00, 0x00, 0x0b, 0x00, 0x00, 0x00,
  0x4a, 0xff, 0xff, 0xff, 0x14, 0x00, 0x00, 0x00, 0x00, 0x00, 0x00, 0x08,
  0x10, 0x00, 0x00, 0x00, 0x14, 0x00, 0x00, 0x00, 0x04, 0x00, 0x00, 0x00,
  0xa0, 0xf7, 0xff, 0xff, 0x01, 0x00, 0x00, 0x00, 0x0b, 0x00, 0x00, 0x00,
  0x03, 0x00, 0x00, 0x00, 0x08, 0x00, 0x00, 0x00, 0x09, 0x00, 0x00, 0x00,
  0x0a, 0x00, 0x00, 0x00, 0x00, 0x00, 0x0a, 0x00, 0x10, 0x00, 0x0c, 0x00,
  0x08, 0x00, 0x04, 0x00, 0x0a, 0x00, 0x00, 0x00, 0x0c, 0x00, 0x00, 0x00,
  0x10, 0x00, 0x00, 0x00, 0x03, 0x00, 0x00, 0x00, 0x01, 0x00, 0x00, 0x00,
  0x08, 0x00, 0x00, 0x00, 0x02, 0x00, 0x00, 0x00, 0x07, 0x00, 0x00, 0x00,
  0x02, 0x00, 0x00, 0x00, 0xae, 0xff, 0xff, 0xff, 0x24, 0x00, 0x00, 0x00,
  0x00, 0x00, 0x00, 0x05, 0x34, 0x00, 0x00, 0x00, 0x38, 0x00, 0x00, 0x00,
  0x02, 0x00, 0x00, 0x00, 0x00, 0x00, 0x0e, 0x00, 0x18, 0x00, 0x17, 0x00,
  0x10, 0x00, 0x0c, 0x00, 0x08, 0x00, 0x04, 0x00, 0x0e, 0x00, 0x00, 0x00,
  0x02, 0x00, 0x00, 0x00, 0x02, 0x00, 0x00, 0x00, 0x02, 0x00, 0x00, 0x00,
  0x02, 0x00, 0x00, 0x00, 0x00, 0x00, 0x00, 0x01, 0x01, 0x00, 0x00, 0x00,
  0x07, 0x00, 0x00, 0x00, 0x01, 0x00, 0x00, 0x00, 0x06, 0x00, 0x00, 0x00,
  0x00, 0x00, 0x0e, 0x00, 0x18, 0x00, 0x14, 0x00, 0x10, 0x00, 0x0c, 0x00,
  0x0b, 0x00, 0x04, 0x00, 0x0e, 0x00, 0x00, 0x00, 0x20, 0x00, 0x00, 0x00,
  0x00, 0x00, 0x00, 0x01, 0x2c, 0x00, 0x00, 0x00, 0x30, 0x00, 0x00, 0x00,
  0x01, 0x00, 0x00, 0x00, 0x0c, 0x00, 0x14, 0x00, 0x13, 0x00, 0x0c, 0x00,
  0x08, 0x00, 0x07, 0x00, 0x0c, 0x00, 0x00, 0x00, 0x00, 0x00, 0x00, 0x01,
  0x02, 0x00, 0x00, 0x00, 0x02, 0x00, 0x00, 0x00, 0x00, 0x00, 0x00, 0x01,
  0x01, 0x00, 0x00, 0x00, 0x06, 0x00, 0x00, 0x00, 0x03, 0x00, 0x00, 0x00,
  0x05, 0x00, 0x00, 0x00, 0x03, 0x00, 0x00, 0x00, 0x04, 0x00, 0x00, 0x00,
  0x00, 0x00, 0x0e, 0x00, 0x14, 0x00, 0x00, 0x00, 0x10, 0x00, 0x0c, 0x00,
  0x0b, 0x00, 0x04, 0x00, 0x0e, 0x00, 0x00, 0x00, 0x18, 0x00, 0x00, 0x00,
  0x00, 0x00, 0x00, 0x4a, 0x18, 0x00, 0x00, 0x00, 0x1c, 0x00, 0x00, 0x00,
  0x08, 0x00, 0x08, 0x00, 0x00, 0x00, 0x07, 0x00, 0x08, 0x00, 0x00, 0x00,
  0x00, 0x00, 0x00, 0x01, 0x01, 0x00, 0x00, 0x00, 0x05, 0x00, 0x00, 0x00,
  0x02, 0x00, 0x00, 0x00, 0x00, 0x00, 0x00, 0x00, 0x01, 0x00, 0x00, 0x00,
  0x01, 0x00, 0x00, 0x00, 0x0c, 0x00, 0x00, 0x00, 0x01, 0x00, 0x00, 0x00,
  0x00, 0x00, 0x00, 0x00, 0x0d, 0x00, 0x00, 0x00, 0x50, 0x07, 0x00, 0x00,
  0xec, 0x06, 0x00, 0x00, 0x98, 0x06, 0x00, 0x00, 0x88, 0x05, 0x00, 0x00,
  0x8c, 0x04, 0x00, 0x00, 0xf0, 0x03, 0x00, 0x00, 0x24, 0x03, 0x00, 0x00,
  0x98, 0x02, 0x00, 0x00, 0x24, 0x02, 0x00, 0x00, 0x78, 0x01, 0x00, 0x00,
  0x1c, 0x01, 0x00, 0x00, 0x80, 0x00, 0x00, 0x00, 0x04, 0x00, 0x00, 0x00,
  0xf8, 0xf8, 0xff, 0xff, 0x18, 0x00, 0x00, 0x00, 0x20, 0x00, 0x00, 0x00,
  0x40, 0x00, 0x00, 0x00, 0x0d, 0x00, 0x00, 0x00, 0x00, 0x00, 0x00, 0x09,
  0x54, 0x00, 0x00, 0x00, 0x02, 0x00, 0x00, 0x00, 0xff, 0xff, 0xff, 0xff,
  0x04, 0x00, 0x00, 0x00, 0xdc, 0xf8, 0xff, 0xff, 0x08, 0x00, 0x00, 0x00,
  0x14, 0x00, 0x00, 0x00, 0x01, 0x00, 0x00, 0x00, 0x80, 0xff, 0xff, 0xff,
  0xff, 0xff, 0xff, 0xff, 0x00, 0x00, 0x00, 0x00, 0x01, 0x00, 0x00, 0x00,
  0x00, 0x00, 0x80, 0x3b, 0x19, 0x00, 0x00, 0x00, 0x53, 0x74, 0x61, 0x74,
  0x65, 0x66, 0x75, 0x6c, 0x50, 0x61, 0x72, 0x74, 0x69, 0x74, 0x69, 0x6f,
  0x6e, 0x65, 0x64, 0x43, 0x61, 0x6c, 0x6c, 0x3a, 0x30, 0x00, 0x00, 0x00,
  0x02, 0x00, 0x00, 0x00, 0x01, 0x00, 0x00, 0x00, 0x04, 0x00, 0x00, 0x00,
  0x70, 0xf9, 0xff, 0xff, 0x18, 0x00, 0x00, 0x00, 0x20, 0x00, 0x00, 0x00,
  0x40, 0x00, 0x00, 0x00, 0x0c, 0x00, 0x00, 0x00, 0x00, 0x00, 0x00, 0x09,
  0x74, 0x00, 0x00, 0x00, 0x02, 0x00, 0x00, 0x00, 0xff, 0xff, 0xff, 0xff,
  0x04, 0x00, 0x00, 0x00, 0x54, 0xf9, 0xff, 0xff, 0x08, 0x00, 0x00, 0x00,
  0x14, 0x00, 0x00, 0x00, 0x01, 0x00, 0x00, 0x00, 0x56, 0x00, 0x00, 0x00,
  0x00, 0x00, 0x00, 0x00, 0x00, 0x00, 0x00, 0x00, 0x01, 0x00, 0x00, 0x00,
  0xc8, 0x48, 0x55, 0x3d, 0x3a, 0x00, 0x00, 0x00, 0x6d, 0x6f, 0x64, 0x65,
  0x6c, 0x5f, 0x31, 0x2f, 0x71, 0x75, 0x61, 0x6e, 0x74, 0x5f, 0x64, 0x65,
  0x6e, 0x73, 0x65, 0x5f, 0x31, 0x2f, 0x4d, 0x61, 0x74, 0x4d, 0x75, 0x6c,
  0x3b, 0x6d, 0x6f, 0x64, 0x65, 0x6c, 0x5f, 0x31, 0x2f, 0x71, 0x75, 0x61,
  0x6e, 0x74, 0x5f, 0x64, 0x65, 0x6e, 0x73, 0x65, 0x5f, 0x31, 0x2f, 0x42,
  0x69, 0x61, 0x73, 0x41, 0x64, 0x64, 0x00, 0x00, 0x02, 0x00, 0x00, 0x00,
  0x01, 0x00, 0x00, 0x00, 0x04, 0x00, 0x00, 0x00, 0x62, 0xfa, 0xff, 0xff,
  0x14, 0x00, 0x00, 0x00, 0x34, 0x00, 0x00, 0x00, 0x0b, 0x00, 0x00, 0x00,
  0x00, 0x00, 0x00, 0x02, 0x3c, 0x00, 0x00, 0x00, 0xdc, 0xf9, 0xff, 0xff,
  0x08, 0x00, 0x00, 0x00, 0x14, 0x00, 0x00, 0x00, 0x01, 0x00, 0x00, 0x00,
  0x00, 0x00, 0x00, 0x00, 0x00, 0x00, 0x00, 0x00, 0x00, 0x00, 0x00, 0x00,
  0x01, 0x00, 0x00, 0x00, 0xb4, 0xf0, 0x23, 0x3a, 0x0c, 0x00, 0x00, 0x00,
  0x64, 0x65, 0x6e, 0x73, 0x65, 0x5f, 0x31, 0x2f, 0x62, 0x69, 0x61, 0x73,
  0x00, 0x00, 0x00, 0x00, 0x01, 0x00, 0x00, 0x00, 0x04, 0x00, 0x00, 0x00,
  0xba, 0xfa, 0xff, 0xff, 0x14, 0x00, 0x00, 0x00, 0x34, 0x00, 0x00, 0x00,
  0x0a, 0x00, 0x00, 0x00, 0x00, 0x00, 0x00, 0x09, 0x88, 0x00, 0x00, 0x00,
  0x34, 0xfa, 0xff, 0xff, 0x08, 0x00, 0x00, 0x00, 0x14, 0x00, 0x00, 0x00,
  0x01, 0x00, 0x00, 0x00, 0x00, 0x00, 0x00, 0x00, 0x00, 0x00, 0x00, 0x00,
  0x00, 0x00, 0x00, 0x00, 0x01, 0x00, 0x00, 0x00, 0x25, 0x12, 0x13, 0x3d,
  0x59, 0x00, 0x00, 0x00, 0x6d, 0x6f, 0x64, 0x65, 0x6c, 0x5f, 0x31, 0x2f,
  0x71, 0x75, 0x61, 0x6e, 0x74, 0x5f, 0x64, 0x65, 0x6e, 0x73, 0x65, 0x5f,
  0x31, 0x2f, 0x4d, 0x61, 0x74, 0x4d, 0x75, 0x6c, 0x3b, 0x6d, 0x6f, 0x64,
  0x65, 0x6c, 0x5f, 0x31, 0x2f, 0x71, 0x75, 0x61, 0x6e, 0x74, 0x5f, 0x64,
  0x65, 0x6e, 0x73, 0x65, 0x5f, 0x31, 0x2f, 0x4c, 0x61, 0x73, 0x74, 0x56,
  0x61, 0x6c, 0x75, 0x65, 0x51, 0x75, 0x61, 0x6e, 0x74, 0x2f, 0x46, 0x61,
  0x6b, 0x65, 0x51, 0x75, 0x61, 0x6e, 0x74, 0x57, 0x69, 0x74, 0x68, 0x4d,
  0x69, 0x6e, 0x4d, 0x61, 0x78, 0x56, 0x61, 0x72, 0x73, 0x00, 0x00, 0x00,
  0x02, 0x00, 0x00, 0x00, 0x04, 0x00, 0x00, 0x00, 0x20, 0x01, 0x00, 0x00,
  0x08, 0xfb, 0xff, 0xff, 0x18, 0x00, 0x00, 0x00, 0x20, 0x00, 0x00, 0x00,
  0x3c, 0x00, 0x00, 0x00, 0x09, 0x00, 0x00, 0x00, 0x00, 0x00, 0x00, 0x09,
  0x4c, 0x00, 0x00, 0x00, 0x02, 0x00, 0x00, 0x00, 0xff, 0xff, 0xff, 0xff,
  0x20, 0x01, 0x00, 0x00, 0xec, 0xfa, 0xff, 0xff, 0x08, 0x00, 0x00, 0x00,
  0x10, 0x00, 0x00, 0x00, 0x01, 0x00, 0x00, 0x00, 0xef, 0xff, 0xff, 0xff,
  0xff, 0xff, 0xff, 0xff, 0x01, 0x00, 0x00, 0x00, 0x90, 0xae, 0x8e, 0x3c,
  0x17, 0x00, 0x00, 0x00, 0x6d, 0x6f, 0x64, 0x65, 0x6c, 0x5f, 0x31, 0x2f,
  0x66, 0x6c, 0x61, 0x74, 0x74, 0x65, 0x6e, 0x2f, 0x52, 0x65, 0x73, 0x68,
  0x61, 0x70, 0x65, 0x00, 0x02, 0x00, 0x00, 0x00, 0x01, 0x00, 0x00, 0x00,
  0x20, 0x01, 0x00, 0x00, 0x78, 0xfb, 0xff, 0xff, 0x18, 0x00, 0x00, 0x00,
  0x28, 0x00, 0x00, 0x00, 0x44, 0x00, 0x00, 0x00, 0x08, 0x00, 0x00, 0x00,
  0x00, 0x00, 0x00, 0x09, 0x5c, 0x00, 0x00, 0x00, 0x04, 0x00, 0x00, 0x00,
  0xff, 0xff, 0xff, 0xff, 0x06, 0x00, 0x00, 0x00, 0x06, 0x00, 0x00, 0x00,
  0x08, 0x00, 0x00, 0x00, 0x64, 0xfb, 0xff, 0xff, 0x08, 0x00, 0x00, 0x00,
  0x10, 0x00, 0x00, 0x00, 0x01, 0x00, 0x00, 0x00, 0xef, 0xff, 0xff, 0xff,
  0xff, 0xff, 0xff, 0xff, 0x01, 0x00, 0x00, 0x00, 0x90, 0xae, 0x8e, 0x3c,
  0x1d, 0x00, 0x00, 0x00, 0x6d, 0x6f, 0x64, 0x65, 0x6c, 0x5f, 0x31, 0x2f,
  0x6d, 0x61, 0x78, 0x5f, 0x70, 0x6f, 0x6f, 0x6c, 0x69, 0x6e, 0x67, 0x32,
  0x64, 0x2f, 0x4d, 0x61, 0x78, 0x50, 0x6f, 0x6f, 0x6c, 0x00, 0x00, 0x00,
  0x04, 0x00, 0x00, 0x00, 0x01, 0x00, 0x00, 0x00, 0x06, 0x00, 0x00, 0x00,
  0x06, 0x00, 0x00, 0x00, 0x08, 0x00, 0x00, 0x00, 0x00, 0xfc, 0xff, 0xff,
  0x18, 0x00, 0x00, 0x00, 0x28, 0x00, 0x00, 0x00, 0x44, 0x00, 0x00, 0x00,
  0x07, 0x00, 0x00, 0x00, 0x00, 0x00, 0x00, 0x09, 0x9c, 0x00, 0x00, 0x00,
  0x04, 0x00, 0x00, 0x00, 0xff, 0xff, 0xff, 0xff, 0x0d, 0x00, 0x00, 0x00,
  0x0d, 0x00, 0x00, 0x00, 0x08, 0x00, 0x00, 0x00, 0xec, 0xfb, 0xff, 0xff,
  0x08, 0x00, 0x00, 0x00, 0x10, 0x00, 0x00, 0x00, 0x01, 0x00, 0x00, 0x00,
  0xef, 0xff, 0xff, 0xff, 0xff, 0xff, 0xff, 0xff, 0x01, 0x00, 0x00, 0x00,
  0x90, 0xae, 0x8e, 0x3c, 0x5f, 0x00, 0x00, 0x00, 0x6d, 0x6f, 0x64, 0x65,
  0x6c, 0x5f, 0x31, 0x2f, 0x71, 0x75, 0x61, 0x6e, 0x74, 0x5f, 0x63, 0x6f,
  0x6e, 0x76, 0x32, 0x64, 0x2f, 0x52, 0x65, 0x6c, 0x75, 0x3b, 0x6d, 0x6f,
  0x64, 0x65, 0x6c, 0x5f, 0x31, 0x2f, 0x71, 0x75, 0x61, 0x6e, 0x74, 0x5f,
  0x63, 0x6f, 0x6e, 0x76, 0x32, 0x64, 0x2f, 0x42, 0x69, 0x61, 0x73, 0x41,
  0x64, 0x64, 0x3b, 0x6d, 0x6f, 0x64, 0x65, 0x6c, 0x5f, 0x31, 0x2f, 0x71,
  0x75, 0x61, 0x6e, 0x74, 0x5f, 0x63, 0x6f, 0x6e, 0x76, 0x32, 0x64, 0x2f,
  0x43, 0x6f, 0x6e, 0x76, 0x32, 0x44, 0x3b, 0x63, 0x6f, 0x6e, 0x76, 0x32,
  0x64, 0x2f, 0x62, 0x69, 0x61, 0x73, 0x31, 0x00, 0x04, 0x00, 0x00, 0x00,
  0x01, 0x00, 0x00, 0x00, 0x0d, 0x00, 0x00, 0x00, 0x0d, 0x00, 0x00, 0x00,
  0x08, 0x00, 0x00, 0x00, 0xc8, 0xfc, 0xff, 0xff, 0x18, 0x00, 0x00, 0x00,
  0x28, 0x00, 0x00, 0x00, 0x44, 0x00, 0x00, 0x00, 0x06, 0x00, 0x00, 0x00,
  0x00, 0x00, 0x00, 0x09, 0x6c, 0x00, 0x00, 0x00, 0x04, 0x00, 0x00, 0x00,
  0xff, 0xff, 0xff, 0xff, 0x20, 0x00, 0x00, 0x00, 0x20, 0x00, 0x00, 0x00,
  0x01, 0x00, 0x00, 0x00, 0xb4, 0xfc, 0xff, 0xff, 0x08, 0x00, 0x00, 0x00,
  0x10, 0x00, 0x00, 0x00, 0x01, 0x00, 0x00, 0x00, 0x80, 0xff, 0xff, 0xff,
  0xff, 0xff, 0xff, 0xff, 0x01, 0x00, 0x00, 0x00, 0x2a, 0x2a, 0x8a, 0x3d,
  0x2d, 0x00, 0x00, 0x00, 0x6d, 0x6f, 0x64, 0x65, 0x6c, 0x5f, 0x31, 0x2f,
  0x72, 0x65, 0x73, 0x69, 0x7a, 0x69, 0x6e, 0x67, 0x2f, 0x72, 0x65, 0x73,
  0x69, 0x7a, 0x65, 0x2f, 0x52, 0x65, 0x73, 0x69, 0x7a, 0x65, 0x4e, 0x65,
  0x61, 0x72, 0x65, 0x73, 0x74, 0x4e, 0x65, 0x69, 0x67, 0x68, 0x62, 0x6f,
  0x72, 0x00, 0x00, 0x00, 0x04, 0x00, 0x00, 0x00, 0x01, 0x00, 0x00, 0x00,
  0x20, 0x00, 0x00, 0x00, 0x20, 0x00, 0x00, 0x00, 0x01, 0x00, 0x00, 0x00,
  0xba, 0xfd, 0xff, 0xff, 0x14, 0x00, 0x00, 0x00, 0x84, 0x00, 0x00, 0x00,
  0x05, 0x00, 0x00, 0x00, 0x00, 0x00, 0x00, 0x02, 0xdc, 0x00, 0x00, 0x00,
  0x34, 0xfd, 0xff, 0xff, 0x08, 0x00, 0x00, 0x00, 0x48, 0x00, 0x00, 0x00,
  0x08, 0x00, 0x00, 0x00, 0x00, 0x00, 0x00, 0x00, 0x00, 0x00, 0x00, 0x00,
  0x00, 0x00, 0x00, 0x00, 0x00, 0x00, 0x00, 0x00, 0x00, 0x00, 0x00, 0x00,
  0x00, 0x00, 0x00, 0x00, 0x00, 0x00, 0x00, 0x00, 0x00, 0x00, 0x00, 0x00,
  0x00, 0x00, 0x00, 0x00, 0x00, 0x00, 0x00, 0x00, 0x00, 0x00, 0x00, 0x00,
  0x00, 0x00, 0x00, 0x00, 0x00, 0x00, 0x00, 0x00, 0x00, 0x00, 0x00, 0x00,
  0x00, 0x00, 0x00, 0x00, 0x00, 0x00, 0x00, 0x00, 0x08, 0x00, 0x00, 0x00,
  0xaf, 0xc1, 0xe0, 0x38, 0x57, 0xd8, 0xd4, 0x38, 0xf9, 0xfb, 0xe2, 0x38,
  0x5b, 0x3d, 0xdb, 0x38, 0xb3, 0xe9, 0xcf, 0x38, 0x4e, 0x6b, 0xba, 0x38,
  0x30, 0xd1, 0xf8, 0x38, 0x98, 0xe5, 0xd2, 0x38, 0x5e, 0x00, 0x00, 0x00,
  0x6d, 0x6f, 0x64, 0x65, 0x6c, 0x5f, 0x31, 0x2f, 0x71, 0x75, 0x61, 0x6e,
  0x74, 0x5f, 0x63, 0x6f, 0x6e, 0x76, 0x32, 0x64, 0x2f, 0x52, 0x65, 0x6c,
  0x75, 0x3b, 0x6d, 0x6f, 0x64, 0x65, 0x6c, 0x5f, 0x31, 0x2f, 0x71, 0x75,
  0x61, 0x6e, 0x74, 0x5f, 0x63, 0x6f, 0x6e, 0x76, 0x32, 0x64, 0x2f, 0x42,
  0x69, 0x61, 0x73, 0x41, 0x64, 0x64, 0x3b, 0x6d, 0x6f, 0x64, 0x65, 0x6c,
  0x5f, 0x31, 0x2f, 0x71, 0x75, 0x61, 0x6e, 0x74, 0x5f, 0x63, 0x6f, 0x6e,
  0x76, 0x32, 0x64, 0x2f, 0x43, 0x6f, 0x6e, 0x76, 0x32, 0x44, 0x3b, 0x63,
  0x6f, 0x6e, 0x76, 0x32, 0x64, 0x2f, 0x62, 0x69, 0x61, 0x73, 0x00, 0x00,
  0x01, 0x00, 0x00, 0x00, 0x08, 0x00, 0x00, 0x00, 0xb2, 0xfe, 0xff, 0xff,
  0x14, 0x00, 0x00, 0x00, 0x88, 0x00, 0x00, 0x00, 0x04, 0x00, 0x00, 0x00,
  0x00, 0x00, 0x00, 0x09, 0xe4, 0x00, 0x00, 0x00, 0x2c, 0xfe, 0xff, 0xff,
  0x08, 0x00, 0x00, 0x00, 0x4c, 0x00, 0x00, 0x00, 0x08, 0x00, 0x00, 0x00,
  0x00, 0x00, 0x00, 0x00, 0x00, 0x00, 0x00, 0x00, 0x00, 0x00, 0x00, 0x00,
  0x00, 0x00, 0x00, 0x00, 0x00, 0x00, 0x00, 0x00, 0x00, 0x00, 0x00, 0x00,
  0x00, 0x00, 0x00, 0x00, 0x00, 0x00, 0x00, 0x00, 0x00, 0x00, 0x00, 0x00,
  0x00, 0x00, 0x00, 0x00, 0x00, 0x00, 0x00, 0x00, 0x00, 0x00, 0x00, 0x00,
  0x00, 0x00, 0x00, 0x00, 0x00, 0x00, 0x00, 0x00, 0x00, 0x00, 0x00, 0x00,
  0x00, 0x00, 0x00, 0x00, 0x00, 0x00, 0x00, 0x00, 0x08, 0x00, 0x00, 0x00,
  0xab, 0x38, 0xd0, 0x3a, 0xa9, 0x2f, 0xc5, 0x3a, 0x00, 0x49, 0xd2, 0x3a,
  0x3e, 0x1c, 0xcb, 0x3a, 0xea, 0x9d, 0xc0, 0x3a, 0x54, 0xb4, 0xac, 0x3a,
  0x05, 0x83, 0xe6, 0x3a, 0x9c, 0x61, 0xc3, 0x3a, 0x61, 0x00, 0x00, 0x00,
  0x6d, 0x6f, 0x64, 0x65, 0x6c, 0x5f, 0x31, 0x2f, 0x71, 0x75, 0x61, 0x6e,
  0x74, 0x5f, 0x63, 0x6f, 0x6e, 0x76, 0x32, 0x64, 0x2f, 0x43, 0x6f, 0x6e,
  0x76, 0x32, 0x44, 0x3b, 0x6d, 0x6f, 0x64, 0x65, 0x6c, 0x5f, 0x31, 0x2f,
  0x71, 0x75, 0x61, 0x6e, 0x74, 0x5f, 0x63, 0x6f, 0x6e, 0x76, 0x32, 0x64,
  0x2f, 0x4c, 0x61, 0x73, 0x74, 0x56, 0x61, 0x6c, 0x75, 0x65, 0x51, 0x75,
  0x61, 0x6e, 0x74, 0x2f, 0x46, 0x61, 0x6b, 0x65, 0x51, 0x75, 0x61, 0x6e,
  0x74, 0x57, 0x69, 0x74, 0x68, 0x4d, 0x69, 0x6e, 0x4d, 0x61, 0x78, 0x56,
  0x61, 0x72, 0x73, 0x50, 0x65, 0x72, 0x43, 0x68, 0x61, 0x6e, 0x6e, 0x65,
  0x6c, 0x00, 0x00, 0x00, 0x04, 0x00, 0x00, 0x00, 0x08, 0x00, 0x00, 0x00,
  0x08, 0x00, 0x00, 0x00, 0x08, 0x00, 0x00, 0x00, 0x01, 0x00, 0x00, 0x00,
  0xbe, 0xff, 0xff, 0xff, 0x14, 0x00, 0x00, 0x00, 0x14, 0x00, 0x00, 0x00,
  0x03, 0x00, 0x00, 0x00, 0x00, 0x00, 0x00, 0x02, 0x24, 0x00, 0x00, 0x00,
  0xb0, 0xff, 0xff, 0xff, 0x15, 0x00, 0x00, 0x00, 0x6d, 0x6f, 0x64, 0x65,
  0x6c, 0x5f, 0x31, 0x2f, 0x66, 0x6c, 0x61, 0x74, 0x74, 0x65, 0x6e, 0x2f,
  0x43, 0x6f, 0x6e, 0x73, 0x74, 0x00, 0x00, 0x00, 0x01, 0x00, 0x00, 0x00,
  0x02, 0x00, 0x00, 0x00, 0x00, 0x00, 0x0e, 0x00, 0x18, 0x00, 0x14, 0x00,
  0x13, 0x00, 0x0c, 0x00, 0x08, 0x00, 0x04, 0x00, 0x0e, 0x00, 0x00, 0x00,
  0x18, 0x00, 0x00, 0x00, 0x18, 0x00, 0x00, 0x00, 0x02, 0x00, 0x00, 0x00,
  0x00, 0x00, 0x00, 0x02, 0x30, 0x00, 0x00, 0x00, 0x04, 0x00, 0x04, 0x00,
  0x04, 0x00, 0x00, 0x00, 0x1c, 0x00, 0x00, 0x00, 0x6d, 0x6f, 0x64, 0x65,
  0x6c, 0x5f, 0x31, 0x2f, 0x72, 0x65, 0x73, 0x69, 0x7a, 0x69, 0x6e, 0x67,
  0x2f, 0x72, 0x65, 0x73, 0x69, 0x7a, 0x65, 0x2f, 0x73, 0x69, 0x7a, 0x65,
  0x00, 0x00, 0x00, 0x00, 0x01, 0x00, 0x00, 0x00, 0x02, 0x00, 0x00, 0x00,
  0x14, 0x00, 0x1c, 0x00, 0x18, 0x00, 0x17, 0x00, 0x10, 0x00, 0x0c, 0x00,
  0x08, 0x00, 0x00, 0x00, 0x00, 0x00, 0x04, 0x00, 0x14, 0x00, 0x00, 0x00,
  0x18, 0x00, 0x00, 0x00, 0x34, 0x00, 0x00, 0x00, 0x54, 0x00, 0x00, 0x00,
  0x01, 0x00, 0x00, 0x00, 0x00, 0x00, 0x00, 0x09, 0x68, 0x00, 0x00, 0x00,
  0x04, 0x00, 0x00, 0x00, 0xff, 0xff, 0xff, 0xff, 0x7c, 0x00, 0x00, 0x00,
  0x81, 0x00, 0x00, 0x00, 0x01, 0x00, 0x00, 0x00, 0x0c, 0x00, 0x0c, 0x00,
  0x00, 0x00, 0x00, 0x00, 0x08, 0x00, 0x04, 0x00, 0x0c, 0x00, 0x00, 0x00,
  0x08, 0x00, 0x00, 0x00, 0x14, 0x00, 0x00, 0x00, 0x01, 0x00, 0x00, 0x00,
  0x80, 0xff, 0xff, 0xff, 0xff, 0xff, 0xff, 0xff, 0x00, 0x00, 0x00, 0x00,
  0x01, 0x00, 0x00, 0x00, 0x2a, 0x2a, 0x8a, 0x3d, 0x19, 0x00, 0x00, 0x00,
  0x73, 0x65, 0x72, 0x76, 0x69, 0x6e, 0x67, 0x5f, 0x64, 0x65, 0x66, 0x61,
  0x75, 0x6c, 0x74, 0x5f, 0x69, 0x6e, 0x70, 0x75, 0x74, 0x5f, 0x31, 0x3a,
  0x30, 0x00, 0x00, 0x00, 0x04, 0x00, 0x00, 0x00, 0x01, 0x00, 0x00, 0x00,
  0x7c, 0x00, 0x00, 0x00, 0x81, 0x00, 0x00, 0x00, 0x01, 0x00, 0x00, 0x00,
  0x06, 0x00, 0x00, 0x00, 0x7c, 0x00, 0x00, 0x00, 0x5c, 0x00, 0x00, 0x00,
  0x48, 0x00, 0x00, 0x00, 0x38, 0x00, 0x00, 0x00, 0x18, 0x00, 0x00, 0x00,
  0x04, 0x00, 0x00, 0x00, 0xa8, 0xff, 0xff, 0xff, 0x19, 0x00, 0x00, 0x00,
  0x02, 0x00, 0x00, 0x00, 0x00, 0x00, 0x00, 0x19, 0xb8, 0xff, 0xff, 0xff,
  0x09, 0x00, 0x00, 0x00, 0x04, 0x00, 0x00, 0x00, 0x00, 0x00, 0x00, 0x09,
  0x0c, 0x00, 0x0c, 0x00, 0x0b, 0x00, 0x00, 0x00, 0x00, 0x00, 0x04, 0x00,
  0x0c, 0x00, 0x00, 0x00, 0x16, 0x00, 0x00, 0x00, 0x00, 0x00, 0x00, 0x16,
  0xe0, 0xff, 0xff, 0xff, 0x11, 0x00, 0x00, 0x00, 0x02, 0x00, 0x00, 0x00,
  0x00, 0x00, 0x00, 0x11, 0xf0, 0xff, 0xff, 0xff, 0x03, 0x00, 0x00, 0x00,
  0x03, 0x00, 0x00, 0x00, 0x00, 0x00, 0x00, 0x03, 0x0c, 0x00, 0x10, 0x00,
  0x0f, 0x00, 0x00, 0x00, 0x08, 0x00, 0x04, 0x00, 0x0c, 0x00, 0x00, 0x00,
  0x61, 0x00, 0x00, 0x00, 0x03, 0x00, 0x00, 0x00, 0x00, 0x00, 0x00, 0x61
};
