alignas(8) const unsigned char tflite_model[] = {
  0x20, 0x00, 0x00, 0x00, 0x54, 0x46, 0x4c, 0x33, 0x00, 0x00, 0x00, 0x00,
  0x14, 0x00, 0x20, 0x00, 0x1c, 0x00, 0x18, 0x00, 0x14, 0x00, 0x10, 0x00,
  0x0c, 0x00, 0x00, 0x00, 0x08, 0x00, 0x04, 0x00, 0x14, 0x00, 0x00, 0x00,
  0x1c, 0x00, 0x00, 0x00, 0x88, 0x00, 0x00, 0x00, 0xb8, 0x00, 0x00, 0x00,
  0x38, 0x08, 0x00, 0x00, 0x48, 0x08, 0x00, 0x00, 0x28, 0x12, 0x00, 0x00,
  0x03, 0x00, 0x00, 0x00, 0x01, 0x00, 0x00, 0x00, 0x04, 0x00, 0x00, 0x00,
  0x06, 0xf7, 0xff, 0xff, 0x0c, 0x00, 0x00, 0x00, 0x1c, 0x00, 0x00, 0x00,
  0x40, 0x00, 0x00, 0x00, 0x0f, 0x00, 0x00, 0x00, 0x73, 0x65, 0x72, 0x76,
  0x69, 0x6e, 0x67, 0x5f, 0x64, 0x65, 0x66, 0x61, 0x75, 0x6c, 0x74, 0x00,
  0x01, 0x00, 0x00, 0x00, 0x04, 0x00, 0x00, 0x00, 0xbc, 0xff, 0xff, 0xff,
  0x0c, 0x00, 0x00, 0x00, 0x04, 0x00, 0x00, 0x00, 0x0d, 0x00, 0x00, 0x00,
  0x71, 0x75, 0x61, 0x6e, 0x74, 0x5f, 0x64, 0x65, 0x6e, 0x73, 0x65, 0x5f,
  0x31, 0x00, 0x00, 0x00, 0x01, 0x00, 0x00, 0x00, 0x04, 0x00, 0x00, 0x00,
  0xae, 0xf7, 0xff, 0xff, 0x04, 0x00, 0x00, 0x00, 0x07, 0x00, 0x00, 0x00,
  0x69, 0x6e, 0x70, 0x75, 0x74, 0x5f, 0x31, 0x00, 0x01, 0x00, 0x00, 0x00,
  0x0c, 0x00, 0x00, 0x00, 0x08, 0x00, 0x0c, 0x00, 0x08, 0x00, 0x04, 0x00,
  0x08, 0x00, 0x00, 0x00, 0x0e, 0x00, 0x00, 0x00, 0x04, 0x00, 0x00, 0x00,
  0x13, 0x00, 0x00, 0x00, 0x6d, 0x69, 0x6e, 0x5f, 0x72, 0x75, 0x6e, 0x74,
  0x69, 0x6d, 0x65, 0x5f, 0x76, 0x65, 0x72, 0x73, 0x69, 0x6f, 0x6e, 0x00,
  0x0f, 0x00, 0x00, 0x00, 0x7c, 0x07, 0x00, 0x00, 0x74, 0x07, 0x00, 0x00,
  0x5c, 0x07, 0x00, 0x00, 0x44, 0x07, 0x00, 0x00, 0x34, 0x05, 0x00, 0x00,
  0x04, 0x05, 0x00, 0x00, 0xfc, 0x04, 0x00, 0x00, 0xf4, 0x04, 0x00, 0x00,
  0xec, 0x04, 0x00, 0x00, 0xe4, 0x04, 0x00, 0x00, 0x54, 0x00, 0x00, 0x00,
  0x34, 0x00, 0x00, 0x00, 0x2c, 0x00, 0x00, 0x00, 0x24, 0x00, 0x00, 0x00,
  0x04, 0x00, 0x00, 0x00, 0x36, 0xf8, 0xff, 0xff, 0x04, 0x00, 0x00, 0x00,
  0x10, 0x00, 0x00, 0x00, 0x32, 0x2e, 0x33, 0x2e, 0x30, 0x00, 0x00, 0x00,
  0x00, 0x00, 0x00, 0x00, 0x00, 0x00, 0x00, 0x00, 0xbc, 0xef, 0xff, 0xff,
  0xc0, 0xef, 0xff, 0xff, 0x5a, 0xf8, 0xff, 0xff, 0x04, 0x00, 0x00, 0x00,
  0x10, 0x00, 0x00, 0x00, 0x0a, 0xfe, 0xff, 0xff, 0x80, 0xfc, 0xff, 0xff,
  0x40, 0xfe, 0xff, 0xff, 0x23, 0x08, 0x00, 0x00, 0x76, 0xf8, 0xff, 0xff,
  0x04, 0x00, 0x00, 0x00, 0x80, 0x04, 0x00, 0x00, 0xf6, 0xfd, 0xf6, 0x06,
  0xeb, 0xf6, 0xfe, 0xf9, 0xfe, 0xfb, 0xfb, 0xfb, 0xf2, 0xf4, 0xfe, 0xf0,
  0x06, 0x02, 0x01, 0x04, 0xf8, 0xff, 0x00, 0xfb, 0x03, 0xfb, 0xfd, 0xfc,
  0x00, 0xfc, 0xf9, 0x08, 0xf9, 0xfd, 0xfc, 0xf5, 0xf8, 0xfc, 0xfe, 0xf7,
  0xf8, 0xfb, 0xfd, 0xfe, 0xff, 0x01, 0xfd, 0xff, 0xf9, 0xf8, 0xcd, 0x09,
  0x05, 0xee, 0xff, 0x02, 0xef, 0xfe, 0xfe, 0x09, 0xe4, 0xf8, 0xfd, 0xe8,
  0x07, 0xfa, 0x04, 0xff, 0xfc, 0x03, 0xf9, 0x02, 0x08, 0x01, 0xfc, 0xfb,
  0xfe, 0x00, 0xfd, 0x04, 0xfc, 0xfb, 0xf9, 0xfe, 0xfc, 0xf8, 0xfe, 0xfb,
  0xfe, 0x01, 0xf9, 0xff, 0xf3, 0xf8, 0xf6, 0xfe, 0xd6, 0x09, 0xd6, 0x03,
  0xee, 0xd3, 0x00, 0xee, 0xe8, 0x01, 0x3e, 0xd6, 0xea, 0x0a, 0xf3, 0xe8,
  0xe3, 0xf9, 0xf8, 0xf5, 0xf5, 0xf0, 0xfe, 0xf5, 0x01, 0xfb, 0xf1, 0xf2,
  0xe6, 0xf8, 0xff, 0xf5, 0xf0, 0xfd, 0xf0, 0xfa, 0xe9, 0xf3, 0xfc, 0x05,
  0xfb, 0xfa, 0xf4, 0xee, 0xed, 0xea, 0xfb, 0xfc, 0xec, 0x14, 0xd7, 0xed,
  0xeb, 0xfa, 0x14, 0x00, 0x03, 0xf8, 0x1c, 0xef, 0xff, 0x01, 0xf9, 0xfd,
  0xff, 0xfe, 0x07, 0x00, 0xf6, 0xf2, 0x00, 0xe3, 0xf3, 0xfc, 0xec, 0xf3,
  0xe9, 0xef, 0xfc, 0xf0, 0xf6, 0xff, 0xef, 0xf6, 0xef, 0xec, 0xff, 0xf2,
  0xf5, 0xfe, 0xf0, 0xf8, 0xed, 0xf4, 0xfd, 0xf6, 0xf4, 0xff, 0xf3, 0xcb,
  0xde, 0xe2, 0x0c, 0xff, 0xee, 0x0b, 0x2c, 0x00, 0xfc, 0xe0, 0xf7, 0xea,
  0xea, 0x00, 0xfd, 0x01, 0xe1, 0xf2, 0xff, 0xfd, 0xf7, 0xff, 0xfa, 0x09,
  0xf6, 0xf1, 0xfd, 0xfd, 0xfc, 0xfd, 0xf0, 0x02, 0xf2, 0xed, 0x03, 0xfd,
  0xf5, 0xfe, 0xee, 0xf5, 0xf0, 0xef, 0x00, 0xe9, 0xed, 0xfe, 0xf6, 0x97,
  0xc9, 0xe0, 0xf3, 0xb0, 0xf6, 0xff, 0x0a, 0x02, 0xe7, 0xee, 0xff, 0xf7,
  0x03, 0x00, 0x07, 0xf9, 0xf6, 0xfa, 0x05, 0x04, 0x01, 0xfc, 0x02, 0xf9,
  0x00, 0x01, 0xfd, 0x05, 0x00, 0xff, 0xfa, 0xf8, 0xfd, 0x06, 0xff, 0x03,
  0xfa, 0xfd, 0xfc, 0xfb, 0xf3, 0xf7, 0xfd, 0xf8, 0xf7, 0xfd, 0xfe, 0xfc,
  0xf0, 0x01, 0xfb, 0xe3, 0x0f, 0xfa, 0x06, 0x00, 0x03, 0x0b, 0xfc, 0x07,
  0xfe, 0xfa, 0xf8, 0xf5, 0xfa, 0xf6, 0xff, 0xfd, 0x07, 0xf9, 0xfe, 0xf7,
  0xf0, 0xf2, 0xf6, 0xf8, 0xff, 0xff, 0xfc, 0xfc, 0xfa, 0xf8, 0xfa, 0xe9,
  0x05, 0xf7, 0x02, 0xfb, 0xf4, 0xfe, 0xfd, 0xf6, 0x05, 0x03, 0xcb, 0x09,
  0xfb, 0xee, 0x06, 0xfd, 0xf5, 0xfd, 0xf7, 0xfe, 0xec, 0x0f, 0xfd, 0xef,
  0xfb, 0xf9, 0xf7, 0xf7, 0xfc, 0xf8, 0xf8, 0x09, 0xfd, 0xfe, 0x02, 0xfd,
  0x01, 0xfb, 0xfd, 0xfd, 0x00, 0xfd, 0xff, 0xf1, 0xfd, 0xf6, 0xfd, 0x03,
  0x04, 0xfe, 0xfe, 0xf7, 0xfd, 0xfd, 0xfa, 0xf2, 0xea, 0x00, 0xe9, 0xcf,
  0xf1, 0xd6, 0x01, 0xfd, 0xd1, 0xef, 0xb9, 0x0b, 0xf2, 0xcc, 0x01, 0xfb,
  0x0b, 0xf8, 0xde, 0xf4, 0xfa, 0x07, 0xf6, 0x00, 0xf7, 0xfc, 0xf7, 0xf1,
  0xf2, 0xf7, 0xfd, 0xfc, 0x09, 0xfb, 0xf4, 0xfe, 0xf7, 0x01, 0xfa, 0x05,
  0xf8, 0xff, 0x06, 0xfe, 0xf0, 0x0b, 0xfe, 0x02, 0xf6, 0x09, 0xfe, 0xdd,
  0xef, 0xf8, 0x05, 0xf5, 0x0f, 0xfb, 0x0d, 0x17, 0xf2, 0xf5, 0xee, 0xf6,
  0xf7, 0xff, 0xee, 0xf6, 0xfa, 0x02, 0xfb, 0xf8, 0xf3, 0xf7, 0xee, 0xec,
  0xfa, 0xf7, 0xfa, 0xf8, 0xfd, 0xfa, 0x04, 0x07, 0xf8, 0x04, 0xfb, 0x0b,
  0x00, 0xfb, 0xf2, 0xf4, 0xfd, 0x03, 0xf8, 0x06, 0xf1, 0xf2, 0xea, 0xd9,
  0xf2, 0xf2, 0xee, 0xf3, 0x10, 0xfd, 0xf1, 0x22, 0xeb, 0x1d, 0xf2, 0xff,
  0x11, 0xfa, 0xee, 0xf6, 0x0c, 0x02, 0xf9, 0xf5, 0xed, 0xf9, 0xf2, 0xfb,
  0xe8, 0xee, 0x00, 0xed, 0x08, 0xfc, 0xf9, 0xf8, 0xe6, 0xf2, 0xf9, 0x02,
  0xf4, 0xf7, 0xf2, 0xf6, 0xf5, 0xf7, 0x01, 0xee, 0xd6, 0xf7, 0xe7, 0xda,
  0xde, 0xcb, 0x1b, 0x1c, 0xfa, 0xfd, 0xff, 0x06, 0xe6, 0xf4, 0xfb, 0xfd,
  0xfd, 0xff, 0xf6, 0xfb, 0xf4, 0x08, 0xf9, 0xfd, 0xfb, 0xfd, 0xfb, 0xf7,
  0xf1, 0xfa, 0xfe, 0xfc, 0x05, 0xfd, 0xff, 0x06, 0xfa, 0x05, 0xf8, 0x01,
  0x04, 0xf6, 0x02, 0xfa, 0xfc, 0x03, 0x00, 0x02, 0xd6, 0xfc, 0xe7, 0xd5,
  0xd2, 0xd5, 0xef, 0xe6, 0xe1, 0xfc, 0x00, 0xfd, 0xd9, 0xf3, 0xfd, 0xe0,
  0xf0, 0xf9, 0x0a, 0xfa, 0xe9, 0x07, 0xfa, 0xf1, 0xe8, 0xf9, 0x07, 0xf8,
  0xe8, 0x03, 0x01, 0xf1, 0xf3, 0xfb, 0x07, 0xf6, 0xe7, 0x03, 0xfd, 0xfc,
  0xff, 0xfa, 0x08, 0xfd, 0xf1, 0x09, 0xfb, 0x00, 0xe2, 0x04, 0x15, 0xce,
  0xd8, 0xe5, 0xf5, 0xd5, 0xf0, 0xfc, 0x0b, 0xef, 0xfb, 0xf2, 0xf9, 0xef,
  0xe1, 0xfa, 0x06, 0x02, 0xdb, 0xfd, 0xff, 0xea, 0xef, 0xf8, 0x0b, 0xfb,
  0xe5, 0x05, 0xfa, 0xea, 0x01, 0xfb, 0x0b, 0xfe, 0xeb, 0x0c, 0xf6, 0xf9,
  0xfa, 0xfc, 0x0c, 0xfc, 0xfc, 0x07, 0xfc, 0xfe, 0xf9, 0x02, 0x0a, 0x01,
  0xf2, 0x05, 0x02, 0xf4, 0x1b, 0xff, 0xec, 0xff, 0x02, 0x0a, 0xff, 0xff,
  0xea, 0xfb, 0x17, 0x0d, 0xe9, 0xf9, 0xfe, 0xe9, 0xfc, 0xfb, 0x13, 0x07,
  0xf4, 0x05, 0xfb, 0xf9, 0xed, 0xf9, 0x12, 0xf9, 0xfe, 0xf9, 0xfd, 0xf0,
  0xf2, 0xf7, 0xff, 0x0d, 0xfd, 0x15, 0xfd, 0xf4, 0xea, 0xee, 0xf3, 0x03,
  0xf5, 0xf2, 0xf0, 0xeb, 0xec, 0x07, 0xe1, 0xf2, 0xfd, 0x03, 0x0e, 0xfa,
  0xf6, 0xf9, 0x0b, 0x05, 0xec, 0x00, 0xfb, 0x05, 0x06, 0xfe, 0x12, 0x13,
  0xf7, 0x0e, 0xfa, 0xf4, 0xf8, 0xfc, 0x0f, 0x03, 0xf6, 0x06, 0xfa, 0xee,
  0xf4, 0xfc, 0x0e, 0x04, 0xf0, 0x03, 0xf9, 0xf5, 0xec, 0x09, 0xfc, 0x14,
  0xfe, 0xf1, 0x03, 0xfc, 0xe5, 0xf7, 0xd9, 0xdf, 0x03, 0xf3, 0x07, 0xfa,
  0x03, 0xfc, 0x15, 0xf7, 0xe9, 0x0f, 0x00, 0xfa, 0xff, 0xfa, 0x0d, 0xf8,
  0xfd, 0x0f, 0xfd, 0xf3, 0xf1, 0xfe, 0x14, 0x03, 0xf7, 0x10, 0xfd, 0xf2,
  0x02, 0xfa, 0x0e, 0x0a, 0xf0, 0x12, 0xf7, 0x03, 0xec, 0x01, 0xf0, 0x20,
  0xed, 0x1d, 0xf2, 0xf8, 0xed, 0xfa, 0xfd, 0xf2, 0xfa, 0x05, 0xfe, 0xeb,
  0xe6, 0xfa, 0x05, 0xfd, 0xee, 0xff, 0xf8, 0xed, 0xed, 0xfa, 0x03, 0xfb,
  0xeb, 0x02, 0xfc, 0xed, 0xef, 0xf9, 0x06, 0xf7, 0xe4, 0xff, 0xfb, 0xf0,
  0xf7, 0xfc, 0x0c, 0x00, 0xef, 0x04, 0xf8, 0xee, 0x07, 0x0e, 0xfa, 0x11,
  0x19, 0x11, 0x0e, 0x13, 0xfb, 0x0d, 0x04, 0x16, 0x11, 0x01, 0x0e, 0x05,
  0xfe, 0x0c, 0x05, 0x16, 0x0f, 0x00, 0x11, 0x0b, 0x01, 0x0b, 0x0a, 0x0f,
  0x0f, 0x02, 0x0d, 0xfd, 0x03, 0x10, 0xfe, 0x14, 0x15, 0x04, 0x11, 0x0e,
  0xfc, 0x06, 0x01, 0x10, 0x13, 0x04, 0x0d, 0x05, 0xcb, 0xf7, 0xe0, 0xf7,
  0xb7, 0x09, 0xf2, 0xa2, 0xfb, 0x10, 0xf4, 0x11, 0x0d, 0xfb, 0x0b, 0xfb,
  0x03, 0x0d, 0x04, 0x13, 0x10, 0x06, 0x0f, 0xfa, 0xfc, 0x0d, 0x04, 0x10,
  0x0c, 0x02, 0x11, 0xfc, 0x02, 0x0d, 0x00, 0x11, 0x0a, 0x03, 0x0d, 0x02,
  0x04, 0x0e, 0xfd, 0x0a, 0x11, 0x06, 0x0b, 0x06, 0xa1, 0xcd, 0xc4, 0xc8,
  0x9f, 0xc1, 0xc0, 0xa5, 0xdc, 0x06, 0xe6, 0x07, 0xee, 0xf7, 0x03, 0xdd,
  0xfc, 0x08, 0xff, 0x0b, 0x0a, 0x00, 0x0f, 0x05, 0xf6, 0x0d, 0xfc, 0x14,
  0x17, 0xf5, 0x10, 0xfd, 0x04, 0x0a, 0xf7, 0x11, 0x0a, 0x06, 0x10, 0xf2,
  0x03, 0x0e, 0xfd, 0x03, 0x0a, 0xf6, 0x0a, 0x00, 0x8a, 0xe3, 0xad, 0xb7,
  0x81, 0x89, 0xd0, 0xc4, 0xde, 0x06, 0xe3, 0xfe, 0xf3, 0xe5, 0x02, 0xe6,
  0xf7, 0x08, 0xf7, 0x07, 0x0a, 0x00, 0x0e, 0xfa, 0x01, 0x0a, 0xfc, 0x0c,
  0x08, 0xfc, 0x06, 0xfb, 0xfb, 0x0d, 0xfc, 0x0a, 0x07, 0xfd, 0x10, 0x05,
  0x02, 0x0e, 0x08, 0x0f, 0x10, 0xfb, 0x0d, 0xfc, 0xc8, 0xfc, 0xbf, 0xde,
  0xce, 0xb4, 0xe0, 0xa0, 0xe1, 0x0a, 0xea, 0xfa, 0xf6, 0xe8, 0x06, 0xda,
  0xf6, 0x0f, 0xf4, 0x15, 0x0f, 0xfd, 0x11, 0xfd, 0xfa, 0x0f, 0xf7, 0x09,
  0x0f, 0xf9, 0x0e, 0x03, 0xfc, 0x0c, 0xff, 0x13, 0x0c, 0xf8, 0x0e, 0x01,
  0x01, 0x06, 0xfa, 0x0a, 0x0c, 0xf5, 0x0d, 0x02, 0xe8, 0x04, 0xe1, 0xf5,
  0xed, 0xea, 0x02, 0xd6, 0xf2, 0x0b, 0xfb, 0x0d, 0xf0, 0xf4, 0x07, 0xe6,
  0xf9, 0x0d, 0xfd, 0x11, 0x13, 0xfa, 0x10, 0xfe, 0x07, 0x0c, 0x01, 0x0d,
  0x10, 0x01, 0x10, 0xf8, 0xfe, 0x0d, 0x03, 0x09, 0x0f, 0xf9, 0x10, 0xff,
  0x01, 0x08, 0xff, 0x0f, 0x0c, 0x03, 0x0e, 0xfb, 0x6c, 0xf4, 0xff, 0xff,
  0x70, 0xf4, 0xff, 0xff, 0x74, 0xf4, 0xff, 0xff, 0x78, 0xf4, 0xff, 0xff,
  0x12, 0xfd, 0xff, 0xff, 0x04, 0x00, 0x00, 0x00, 0x20, 0x00, 0x00, 0x00,
  0xf0, 0xff, 0xff, 0xff, 0xbd, 0xff, 0xff, 0xff, 0x9c, 0xff, 0xff, 0xff,
  0x59, 0xff, 0xff, 0xff, 0x37, 0x00, 0x00, 0x00, 0x9f, 0xff, 0xff, 0xff,
  0x86, 0xff, 0xff, 0xff, 0xcf, 0xff, 0xff, 0xff, 0x3e, 0xfd, 0xff, 0xff,
  0x04, 0x00, 0x00, 0x00, 0x00, 0x02, 0x00, 0x00, 0xe8, 0xc8, 0x90, 0x16,
  0x3a, 0xf1, 0x27, 0x14, 0xf2, 0xf1, 0x9d, 0x01, 0x4e, 0xdb, 0xc1, 0xcd,
  0x1c, 0x1c, 0xae, 0x1e, 0xf6, 0xc0, 0xf1, 0x29, 0xad, 0x57, 0xf3, 0xb0,
  0x2e, 0x27, 0x2e, 0x37, 0x02, 0x31, 0x3e, 0xf2, 0x4d, 0x38, 0xc8, 0xeb,
  0xc1, 0x9a, 0x41, 0x43, 0xd5, 0x01, 0xe8, 0x3c, 0x9a, 0x81, 0xd6, 0xdf,
  0x22, 0x2b, 0x49, 0xc0, 0x18, 0x18, 0x12, 0x0b, 0x21, 0xcd, 0x04, 0x03,
  0xed, 0xd4, 0x43, 0x04, 0xfc, 0x2b, 0x04, 0xe9, 0xd7, 0xce, 0xc7, 0x36,
  0xbb, 0xef, 0x06, 0xe1, 0x81, 0xb0, 0xc6, 0x28, 0xc7, 0x13, 0xd4, 0xf5,
  0xbc, 0xdd, 0xa0, 0xb2, 0xf7, 0x0a, 0xfe, 0xe4, 0x6c, 0xa8, 0xb0, 0xfe,
  0xf6, 0x00, 0xc6, 0xfa, 0x31, 0x1b, 0xae, 0xdb, 0x56, 0xe1, 0xe5, 0xda,
  0xd3, 0xfe, 0x3b, 0xf3, 0x04, 0x24, 0x11, 0xeb, 0x2d, 0x32, 0xca, 0xd0,
  0xfa, 0xfc, 0x1c, 0x23, 0xcf, 0xc0, 0x56, 0x1e, 0x1c, 0x0f, 0x32, 0x51,
  0xd6, 0x33, 0x62, 0x96, 0xee, 0xf3, 0x3e, 0x08, 0xc1, 0x7f, 0xa6, 0xb8,
  0x06, 0xd7, 0xd4, 0x09, 0xc1, 0x5b, 0x17, 0x0f, 0x30, 0xea, 0xe2, 0xf4,
  0xea, 0xe5, 0x5d, 0x37, 0x2b, 0x22, 0x17, 0x39, 0xd8, 0xc4, 0x02, 0x13,
  0xdb, 0x17, 0xbf, 0x31, 0xf3, 0xe4, 0x45, 0xfc, 0xd8, 0x22, 0xb4, 0x46,
  0xfa, 0xf7, 0x38, 0x61, 0x1b, 0xdb, 0xfc, 0x12, 0xf9, 0x38, 0xb2, 0xc8,
  0xdc, 0xd0, 0x20, 0x05, 0xfc, 0x34, 0xb9, 0x00, 0xd8, 0xd2, 0x4a, 0x1a,
  0xe6, 0x25, 0xc4, 0xee, 0xef, 0x14, 0xeb, 0x07, 0x00, 0x29, 0xa1, 0x12,
  0xdd, 0x0d, 0xee, 0xf8, 0xf8, 0x1e, 0x81, 0x1f, 0x1a, 0xfb, 0xdc, 0x3f,
  0xe9, 0x1e, 0xd8, 0xf1, 0x07, 0x24, 0x1a, 0x19, 0xee, 0x04, 0x9d, 0xf4,
  0x35, 0xfc, 0x14, 0x21, 0xe6, 0xe8, 0xad, 0x02, 0x5a, 0xf4, 0x0e, 0xfb,
  0xc6, 0xb9, 0x32, 0x57, 0x72, 0xf7, 0x28, 0xaf, 0x4b, 0x4b, 0xde, 0x17,
  0x0a, 0x05, 0xd1, 0x0d, 0xee, 0x4f, 0x5a, 0x29, 0x2d, 0xb1, 0xb6, 0xd2,
  0x8e, 0x21, 0xcb, 0xee, 0x07, 0x81, 0xba, 0xae, 0xda, 0xf9, 0xd7, 0x51,
  0x34, 0xc8, 0x81, 0x09, 0x1c, 0x0f, 0xf0, 0x3a, 0xfd, 0xef, 0x85, 0xde,
  0x58, 0x53, 0x16, 0x04, 0xe6, 0x1b, 0xca, 0xa7, 0x25, 0x58, 0xea, 0xbf,
  0xd3, 0xbc, 0xa8, 0xd4, 0xfb, 0x1a, 0x0a, 0xde, 0x41, 0x09, 0xfa, 0xde,
  0x0e, 0x0f, 0xce, 0xd8, 0x05, 0x5b, 0x11, 0xed, 0x24, 0x05, 0x40, 0x26,
  0x27, 0xfa, 0x06, 0x0f, 0x50, 0x2e, 0x2e, 0xd0, 0xc1, 0x1a, 0x12, 0xf9,
  0xe9, 0x00, 0x26, 0x09, 0xec, 0x09, 0x32, 0xe6, 0xfd, 0x97, 0x43, 0xee,
  0xbd, 0xd7, 0x2a, 0xdc, 0xbe, 0x93, 0xd8, 0x02, 0x0f, 0x34, 0x38, 0xe6,
  0xd1, 0x81, 0xd7, 0x0f, 0x39, 0x18, 0x49, 0x00, 0x2d, 0xcc, 0xea, 0x5c,
  0xc9, 0x32, 0xf2, 0x3d, 0x8c, 0x0a, 0xa3, 0xf4, 0x10, 0xf9, 0x00, 0x33,
  0xb0, 0xa8, 0xfc, 0xc5, 0xdc, 0xfb, 0xdf, 0x33, 0xf8, 0xb6, 0xab, 0xe2,
  0x33, 0x1b, 0x11, 0x3e, 0x19, 0xe0, 0xbb, 0x22, 0x1f, 0x12, 0xda, 0xfe,
  0x4f, 0xfe, 0xc6, 0xf0, 0x2c, 0x20, 0xde, 0xf6, 0xea, 0x69, 0x96, 0xd7,
  0x3f, 0xc1, 0x0b, 0xd6, 0x81, 0x2a, 0x01, 0x06, 0xf4, 0x27, 0xdf, 0x52,
  0x6f, 0x37, 0xce, 0xb6, 0x12, 0xe2, 0x28, 0x2e, 0xdf, 0x5d, 0x1b, 0xf1,
  0x1e, 0xfd, 0x0c, 0xfa, 0xce, 0x96, 0xca, 0x0d, 0x0d, 0x3a, 0x16, 0xfc,
  0xad, 0xb1, 0x38, 0xea, 0x2b, 0x24, 0x48, 0x3a, 0x81, 0xa0, 0xd6, 0xd4,
  0x21, 0x18, 0x37, 0xf4, 0xab, 0xda, 0xe4, 0xf8, 0x01, 0xc5, 0xdb, 0x06,
  0x07, 0x4c, 0xad, 0xce, 0xe3, 0xb5, 0xbf, 0x24, 0x24, 0x3b, 0xd0, 0x3e,
  0x1d, 0x43, 0xf5, 0x40, 0x4a, 0xff, 0xff, 0xff, 0x04, 0x00, 0x00, 0x00,
  0x08, 0x00, 0x00, 0x00, 0xff, 0xff, 0xff, 0xff, 0x20, 0x01, 0x00, 0x00,
  0x5e, 0xff, 0xff, 0xff, 0x04, 0x00, 0x00, 0x00, 0x08, 0x00, 0x00, 0x00,
  0x20, 0x00, 0x00, 0x00, 0x20, 0x00, 0x00, 0x00, 0xdc, 0xf6, 0xff, 0xff,
  0xe0, 0xf6, 0xff, 0xff, 0x0f, 0x00, 0x00, 0x00, 0x4d, 0x4c, 0x49, 0x52,
  0x20, 0x43, 0x6f, 0x6e, 0x76, 0x65, 0x72, 0x74, 0x65, 0x64, 0x2e, 0x00,
  0x01, 0x00, 0x00, 0x00, 0x14, 0x00, 0x00, 0x00, 0x00, 0x00, 0x0e, 0x00,
  0x18, 0x00, 0x14, 0x00, 0x10, 0x00, 0x0c, 0x00, 0x08, 0x00, 0x04, 0x00,
  0x0e, 0x00, 0x00, 0x00, 0x14, 0x00, 0x00, 0x00, 0x1c, 0x00, 0x00, 0x00,
  0xc8, 0x01, 0x00, 0x00, 0xcc, 0x01, 0x00, 0x00, 0xd0, 0x01, 0x00, 0x00,
  0x04, 0x00, 0x00, 0x00, 0x6d, 0x61, 0x69, 0x6e, 0x00, 0x00, 0x00, 0x00,
  0x06, 0x00, 0x00, 0x00, 0x74, 0x01, 0x00, 0x00, 0x10, 0x01, 0x00, 0x00,
  0xac, 0x00, 0x00, 0x00, 0x84, 0x00, 0x00, 0x00, 0x40, 0x00, 0x00, 0x00,
  0x04, 0x00, 0x00, 0x00, 0x12, 0xff, 0xff, 0xff, 0x1c, 0x00, 0x00, 0x00,
  0x00, 0x00, 0x00, 0x09, 0x1c, 0x00, 0x00, 0x00, 0x20, 0x00, 0x00, 0x00,
  0x05, 0x00, 0x00, 0x00, 0x00, 0x00, 0x06, 0x00, 0x08, 0x00, 0x04, 0x00,
  0x06, 0x00, 0x00, 0x00, 0x00, 0x00, 0x80, 0x3f, 0x01, 0x00, 0x00, 0x00,
  0x0c, 0x00, 0x00, 0x00, 0x01, 0x00, 0x00, 0x00, 0x0b, 0x00, 0x00, 0x00,
  0x4a, 0xff, 0xff, 0xff, 0x14, 0x00, 0x00, 0x00, 0x00, 0x00, 0x00, 0x08,
  0x10, 0x00, 0x00, 0x00, 0x14, 0x00, 0x00, 0x00, 0x04, 0x00, 0x00, 0x00,
  0xa0, 0xf7, 0xff, 0xff, 0x01, 0x00, 0x00, 0x00, 0x0b, 0x00, 0x00, 0x00,
  0x03, 0x00, 0x00, 0x00, 0x08, 0x00, 0x00, 0x00, 0x09, 0x00, 0x00, 0x00,
  0x0a, 0x00, 0x00, 0x00, 0x00, 0x00, 0x0a, 0x00, 0x10, 0x00, 0x0c, 0x00,
  0x08, 0x00, 0x04, 0x00, 0x0a, 0x00, 0x00, 0x00, 0x0c, 0x00, 0x00, 0x00,
  0x10, 0x00, 0x00, 0x00, 0x03, 0x00, 0x00, 0x00, 0x01, 0x00, 0x00, 0x00,
  0x08, 0x00, 0x00, 0x00, 0x02, 0x00, 0x00, 0x00, 0x07, 0x00, 0x00, 0x00,
  0x02, 0x00, 0x00, 0x00, 0xae, 0xff, 0xff, 0xff, 0x24, 0x00, 0x00, 0x00,
  0x00, 0x00, 0x00, 0x05, 0x34, 0x00, 0x00, 0x00, 0x38, 0x00, 0x00, 0x00,
  0x02, 0x00, 0x00, 0x00, 0x00, 0x00, 0x0e, 0x00, 0x18, 0x00, 0x17, 0x00,
  0x10, 0x00, 0x0c, 0x00, 0x08, 0x00, 0x04, 0x00, 0x0e, 0x00, 0x00, 0x00,
  0x02, 0x00, 0x00, 0x00, 0x02, 0x00, 0x00, 0x00, 0x02, 0x00, 0x00, 0x00,
  0x02, 0x00, 0x00, 0x00, 0x00, 0x00, 0x00, 0x01, 0x01, 0x00, 0x00, 0x00,
  0x07, 0x00, 0x00, 0x00, 0x01, 0x00, 0x00, 0x00, 0x06, 0x00, 0x00, 0x00,
  0x00, 0x00, 0x0e, 0x00, 0x18, 0x00, 0x14, 0x00, 0x10, 0x00, 0x0c, 0x00,
  0x0b, 0x00, 0x04, 0x00, 0x0e, 0x00, 0x00, 0x00, 0x20, 0x00, 0x00, 0x00,
  0x00, 0x00, 0x00, 0x01, 0x2c, 0x00, 0x00, 0x00, 0x30, 0x00, 0x00, 0x00,
  0x01, 0x00, 0x00, 0x00, 0x0c, 0x00, 0x14, 0x00, 0x13, 0x00, 0x0c, 0x00,
  0x08, 0x00, 0x07, 0x00, 0x0c, 0x00, 0x00, 0x00, 0x00, 0x00, 0x00, 0x01,
  0x02, 0x00, 0x00, 0x00, 0x02, 0x00, 0x00, 0x00, 0x00, 0x00, 0x00, 0x01,
  0x01, 0x00, 0x00, 0x00, 0x06, 0x00, 0x00, 0x00, 0x03, 0x00, 0x00, 0x00,
  0x05, 0x00, 0x00, 0x00, 0x03, 0x00, 0x00, 0x00, 0x04, 0x00, 0x00, 0x00,
  0x00, 0x00, 0x0e, 0x00, 0x14, 0x00, 0x00, 0x00, 0x10, 0x00, 0x0c, 0x00,
  0x0b, 0x00, 0x04, 0x00, 0x0e, 0x00, 0x00, 0x00, 0x18, 0x00, 0x00, 0x00,
  0x00, 0x00, 0x00, 0x4a, 0x18, 0x00, 0x00, 0x00, 0x1c, 0x00, 0x00, 0x00,
  0x08, 0x00, 0x08, 0x00, 0x00, 0x00, 0x07, 0x00, 0x08, 0x00, 0x00, 0x00,
  0x00, 0x00, 0x00, 0x01, 0x01, 0x00, 0x00, 0x00, 0x05, 0x00, 0x00, 0x00,
  0x02, 0x00, 0x00, 0x00, 0x00, 0x00, 0x00, 0x00, 0x01, 0x00, 0x00, 0x00,
  0x01, 0x00, 0x00, 0x00, 0x0c, 0x00, 0x00, 0x00, 0x01, 0x00, 0x00, 0x00,
  0x00, 0x00, 0x00, 0x00, 0x0d, 0x00, 0x00, 0x00, 0x50, 0x07, 0x00, 0x00,
  0xec, 0x06, 0x00, 0x00, 0x98, 0x06, 0x00, 0x00, 0x88, 0x05, 0x00, 0x00,
  0x8c, 0x04, 0x00, 0x00, 0xf0, 0x03, 0x00, 0x00, 0x24, 0x03, 0x00, 0x00,
  0x98, 0x02, 0x00, 0x00, 0x24, 0x02, 0x00, 0x00, 0x78, 0x01, 0x00, 0x00,
  0x1c, 0x01, 0x00, 0x00, 0x80, 0x00, 0x00, 0x00, 0x04, 0x00, 0x00, 0x00,
  0xf8, 0xf8, 0xff, 0xff, 0x18, 0x00, 0x00, 0x00, 0x20, 0x00, 0x00, 0x00,
  0x40, 0x00, 0x00, 0x00, 0x0d, 0x00, 0x00, 0x00, 0x00, 0x00, 0x00, 0x09,
  0x54, 0x00, 0x00, 0x00, 0x02, 0x00, 0x00, 0x00, 0xff, 0xff, 0xff, 0xff,
  0x04, 0x00, 0x00, 0x00, 0xdc, 0xf8, 0xff, 0xff, 0x08, 0x00, 0x00, 0x00,
  0x14, 0x00, 0x00, 0x00, 0x01, 0x00, 0x00, 0x00, 0x80, 0xff, 0xff, 0xff,
  0xff, 0xff, 0xff, 0xff, 0x00, 0x00, 0x00, 0x00, 0x01, 0x00, 0x00, 0x00,
  0x00, 0x00, 0x80, 0x3b, 0x19, 0x00, 0x00, 0x00, 0x53, 0x74, 0x61, 0x74,
  0x65, 0x66, 0x75, 0x6c, 0x50, 0x61, 0x72, 0x74, 0x69, 0x74, 0x69, 0x6f,
  0x6e, 0x65, 0x64, 0x43, 0x61, 0x6c, 0x6c, 0x3a, 0x30, 0x00, 0x00, 0x00,
  0x02, 0x00, 0x00, 0x00, 0x01, 0x00, 0x00, 0x00, 0x04, 0x00, 0x00, 0x00,
  0x70, 0xf9, 0xff, 0xff, 0x18, 0x00, 0x00, 0x00, 0x20, 0x00, 0x00, 0x00,
  0x40, 0x00, 0x00, 0x00, 0x0c, 0x00, 0x00, 0x00, 0x00, 0x00, 0x00, 0x09,
  0x74, 0x00, 0x00, 0x00, 0x02, 0x00, 0x00, 0x00, 0xff, 0xff, 0xff, 0xff,
  0x04, 0x00, 0x00, 0x00, 0x54, 0xf9, 0xff, 0xff, 0x08, 0x00, 0x00, 0x00,
  0x14, 0x00, 0x00, 0x00, 0x01, 0x00, 0x00, 0x00, 0x5c, 0x00, 0x00, 0x00,
  0x00, 0x00, 0x00, 0x00, 0x00, 0x00, 0x00, 0x00, 0x01, 0x00, 0x00, 0x00,
  0x5d, 0x79, 0x80, 0x3d, 0x3a, 0x00, 0x00, 0x00, 0x6d, 0x6f, 0x64, 0x65,
  0x6c, 0x5f, 0x31, 0x2f, 0x71, 0x75, 0x61, 0x6e, 0x74, 0x5f, 0x64, 0x65,
  0x6e, 0x73, 0x65, 0x5f, 0x31, 0x2f, 0x4d, 0x61, 0x74, 0x4d, 0x75, 0x6c,
  0x3b, 0x6d, 0x6f, 0x64, 0x65, 0x6c, 0x5f, 0x31, 0x2f, 0x71, 0x75, 0x61,
  0x6e, 0x74, 0x5f, 0x64, 0x65, 0x6e, 0x73, 0x65, 0x5f, 0x31, 0x2f, 0x42,
  0x69, 0x61, 0x73, 0x41, 0x64, 0x64, 0x00, 0x00, 0x02, 0x00, 0x00, 0x00,
  0x01, 0x00, 0x00, 0x00, 0x04, 0x00, 0x00, 0x00, 0x62, 0xfa, 0xff, 0xff,
  0x14, 0x00, 0x00, 0x00, 0x34, 0x00, 0x00, 0x00, 0x0b, 0x00, 0x00, 0x00,
  0x00, 0x00, 0x00, 0x02, 0x3c, 0x00, 0x00, 0x00, 0xdc, 0xf9, 0xff, 0xff,
  0x08, 0x00, 0x00, 0x00, 0x14, 0x00, 0x00, 0x00, 0x01, 0x00, 0x00, 0x00,
  0x00, 0x00, 0x00, 0x00, 0x00, 0x00, 0x00, 0x00, 0x00, 0x00, 0x00, 0x00,
  0x01, 0x00, 0x00, 0x00, 0x97, 0x96, 0x15, 0x3a, 0x0c, 0x00, 0x00, 0x00,
  0x64, 0x65, 0x6e, 0x73, 0x65, 0x5f, 0x31, 0x2f, 0x62, 0x69, 0x61, 0x73,
  0x00, 0x00, 0x00, 0x00, 0x01, 0x00, 0x00, 0x00, 0x04, 0x00, 0x00, 0x00,
  0xba, 0xfa, 0xff, 0xff, 0x14, 0x00, 0x00, 0x00, 0x34, 0x00, 0x00, 0x00,
  0x0a, 0x00, 0x00, 0x00, 0x00, 0x00, 0x00, 0x09, 0x88, 0x00, 0x00, 0x00,
  0x34, 0xfa, 0xff, 0xff, 0x08, 0x00, 0x00, 0x00, 0x14, 0x00, 0x00, 0x00,
  0x01, 0x00, 0x00, 0x00, 0x00, 0x00, 0x00, 0x00, 0x00, 0x00, 0x00, 0x00,
  0x00, 0x00, 0x00, 0x00, 0x01, 0x00, 0x00, 0x00, 0x2f, 0xb7, 0x00, 0x3d,
  0x59, 0x00, 0x00, 0x00, 0x6d, 0x6f, 0x64, 0x65, 0x6c, 0x5f, 0x31, 0x2f,
  0x71, 0x75, 0x61, 0x6e, 0x74, 0x5f, 0x64, 0x65, 0x6e, 0x73, 0x65, 0x5f,
  0x31, 0x2f, 0x4d, 0x61, 0x74, 0x4d, 0x75, 0x6c, 0x3b, 0x6d, 0x6f, 0x64,
  0x65, 0x6c, 0x5f, 0x31, 0x2f, 0x71, 0x75, 0x61, 0x6e, 0x74, 0x5f, 0x64,
  0x65, 0x6e, 0x73, 0x65, 0x5f, 0x31, 0x2f, 0x4c, 0x61, 0x73, 0x74, 0x56,
  0x61, 0x6c, 0x75, 0x65, 0x51, 0x75, 0x61, 0x6e, 0x74, 0x2f, 0x46, 0x61,
  0x6b, 0x65, 0x51, 0x75, 0x61, 0x6e, 0x74, 0x57, 0x69, 0x74, 0x68, 0x4d,
  0x69, 0x6e, 0x4d, 0x61, 0x78, 0x56, 0x61, 0x72, 0x73, 0x00, 0x00, 0x00,
  0x02, 0x00, 0x00, 0x00, 0x04, 0x00, 0x00, 0x00, 0x20, 0x01, 0x00, 0x00,
  0x08, 0xfb, 0xff, 0xff, 0x18, 0x00, 0x00, 0x00, 0x20, 0x00, 0x00, 0x00,
  0x3c, 0x00, 0x00, 0x00, 0x09, 0x00, 0x00, 0x00, 0x00, 0x00, 0x00, 0x09,
  0x4c, 0x00, 0x00, 0x00, 0x02, 0x00, 0x00, 0x00, 0xff, 0xff, 0xff, 0xff,
  0x20, 0x01, 0x00, 0x00, 0xec, 0xfa, 0xff, 0xff, 0x08, 0x00, 0x00, 0x00,
  0x10, 0x00, 0x00, 0x00, 0x01, 0x00, 0x00, 0x00, 0xeb, 0xff, 0xff, 0xff,
  0xff, 0xff, 0xff, 0xff, 0x01, 0x00, 0x00, 0x00, 0xb3, 0xc1, 0x94, 0x3c,
  0x17, 0x00, 0x00, 0x00, 0x6d, 0x6f, 0x64, 0x65, 0x6c, 0x5f, 0x31, 0x2f,
  0x66, 0x6c, 0x61, 0x74, 0x74, 0x65, 0x6e, 0x2f, 0x52, 0x65, 0x73, 0x68,
  0x61, 0x70, 0x65, 0x00, 0x02, 0x00, 0x00, 0x00, 0x01, 0x00, 0x00, 0x00,
  0x20, 0x01, 0x00, 0x00, 0x78, 0xfb, 0xff, 0xff, 0x18, 0x00, 0x00, 0x00,
  0x28, 0x00, 0x00, 0x00, 0x44, 0x00, 0x00, 0x00, 0x08, 0x00, 0x00, 0x00,
  0x00, 0x00, 0x00, 0x09, 0x5c, 0x00, 0x00, 0x00, 0x04, 0x00, 0x00, 0x00,
  0xff, 0xff, 0xff, 0xff, 0x06, 0x00, 0x00, 0x00, 0x06, 0x00, 0x00, 0x00,
  0x08, 0x00, 0x00, 0x00, 0x64, 0xfb, 0xff, 0xff, 0x08, 0x00, 0x00, 0x00,
  0x10, 0x00, 0x00, 0x00, 0x01, 0x00, 0x00, 0x00, 0xeb, 0xff, 0xff, 0xff,
  0xff, 0xff, 0xff, 0xff, 0x01, 0x00, 0x00, 0x00, 0xb3, 0xc1, 0x94, 0x3c,
  0x1d, 0x00, 0x00, 0x00, 0x6d, 0x6f, 0x64, 0x65, 0x6c, 0x5f, 0x31, 0x2f,
  0x6d, 0x61, 0x78, 0x5f, 0x70, 0x6f, 0x6f, 0x6c, 0x69, 0x6e, 0x67, 0x32,
  0x64, 0x2f, 0x4d, 0x61, 0x78, 0x50, 0x6f, 0x6f, 0x6c, 0x00, 0x00, 0x00,
  0x04, 0x00, 0x00, 0x00, 0x01, 0x00, 0x00, 0x00, 0x06, 0x00, 0x00, 0x00,
  0x06, 0x00, 0x00, 0x00, 0x08, 0x00, 0x00, 0x00, 0x00, 0xfc, 0xff, 0xff,
  0x18, 0x00, 0x00, 0x00, 0x28, 0x00, 0x00, 0x00, 0x44, 0x00, 0x00, 0x00,
  0x07, 0x00, 0x00, 0x00, 0x00, 0x00, 0x00, 0x09, 0x9c, 0x00, 0x00, 0x00,
  0x04, 0x00, 0x00, 0x00, 0xff, 0xff, 0xff, 0xff, 0x0d, 0x00, 0x00, 0x00,
  0x0d, 0x00, 0x00, 0x00, 0x08, 0x00, 0x00, 0x00, 0xec, 0xfb, 0xff, 0xff,
  0x08, 0x00, 0x00, 0x00, 0x10, 0x00, 0x00, 0x00, 0x01, 0x00, 0x00, 0x00,
  0xeb, 0xff, 0xff, 0xff, 0xff, 0xff, 0xff, 0xff, 0x01, 0x00, 0x00, 0x00,
  0xb3, 0xc1, 0x94, 0x3c, 0x5f, 0x00, 0x00, 0x00, 0x6d, 0x6f, 0x64, 0x65,
  0x6c, 0x5f, 0x31, 0x2f, 0x71, 0x75, 0x61, 0x6e, 0x74, 0x5f, 0x63, 0x6f,
  0x6e, 0x76, 0x32, 0x64, 0x2f, 0x52, 0x65, 0x6c, 0x75, 0x3b, 0x6d, 0x6f,
  0x64, 0x65, 0x6c, 0x5f, 0x31, 0x2f, 0x71, 0x75, 0x61, 0x6e, 0x74, 0x5f,
  0x63, 0x6f, 0x6e, 0x76, 0x32, 0x64, 0x2f, 0x42, 0x69, 0x61, 0x73, 0x41,
  0x64, 0x64, 0x3b, 0x6d, 0x6f, 0x64, 0x65, 0x6c, 0x5f, 0x31, 0x2f, 0x71,
  0x75, 0x61, 0x6e, 0x74, 0x5f, 0x63, 0x6f, 0x6e, 0x76, 0x32, 0x64, 0x2f,
  0x43, 0x6f, 0x6e, 0x76, 0x32, 0x44, 0x3b, 0x63, 0x6f, 0x6e, 0x76, 0x32,
  0x64, 0x2f, 0x62, 0x69, 0x61, 0x73, 0x31, 0x00, 0x04, 0x00, 0x00, 0x00,
  0x01, 0x00, 0x00, 0x00, 0x0d, 0x00, 0x00, 0x00, 0x0d, 0x00, 0x00, 0x00,
  0x08, 0x00, 0x00, 0x00, 0xc8, 0xfc, 0xff, 0xff, 0x18, 0x00, 0x00, 0x00,
  0x28, 0x00, 0x00, 0x00, 0x44, 0x00, 0x00, 0x00, 0x06, 0x00, 0x00, 0x00,
  0x00, 0x00, 0x00, 0x09, 0x6c, 0x00, 0x00, 0x00, 0x04, 0x00, 0x00, 0x00,
  0xff, 0xff, 0xff, 0xff, 0x20, 0x00, 0x00, 0x00, 0x20, 0x00, 0x00, 0x00,
  0x01, 0x00, 0x00, 0x00, 0xb4, 0xfc, 0xff, 0xff, 0x08, 0x00, 0x00, 0x00,
  0x10, 0x00, 0x00, 0x00, 0x01, 0x00, 0x00, 0x00, 0x80, 0xff, 0xff, 0xff,
  0xff, 0xff, 0xff, 0xff, 0x01, 0x00, 0x00, 0x00, 0xba, 0xb9, 0x81, 0x3e,
  0x2d, 0x00, 0x00, 0x00, 0x6d, 0x6f, 0x64, 0x65, 0x6c, 0x5f, 0x31, 0x2f,
  0x72, 0x65, 0x73, 0x69, 0x7a, 0x69, 0x6e, 0x67, 0x2f, 0x72, 0x65, 0x73,
  0x69, 0x7a, 0x65, 0x2f, 0x52, 0x65, 0x73, 0x69, 0x7a, 0x65, 0x4e, 0x65,
  0x61, 0x72, 0x65, 0x73, 0x74, 0x4e, 0x65, 0x69, 0x67, 0x68, 0x62, 0x6f,
  0x72, 0x00, 0x00, 0x00, 0x04, 0x00, 0x00, 0x00, 0x01, 0x00, 0x00, 0x00,
  0x20, 0x00, 0x00, 0x00, 0x20, 0x00, 0x00, 0x00, 0x01, 0x00, 0x00, 0x00,
  0xba, 0xfd, 0xff, 0xff, 0x14, 0x00, 0x00, 0x00, 0x84, 0x00, 0x00, 0x00,
  0x05, 0x00, 0x00, 0x00, 0x00, 0x00, 0x00, 0x02, 0xdc, 0x00, 0x00, 0x00,
  0x34, 0xfd, 0xff, 0xff, 0x08, 0x00, 0x00, 0x00, 0x48, 0x00, 0x00, 0x00,
  0x08, 0x00, 0x00, 0x00, 0x00, 0x00, 0x00, 0x00, 0x00, 0x00, 0x00, 0x00,
  0x00, 0x00, 0x00, 0x00, 0x00, 0x00, 0x00, 0x00, 0x00, 0x00, 0x00, 0x00,
  0x00, 0x00, 0x00, 0x00, 0x00, 0x00, 0x00, 0x00, 0x00, 0x00, 0x00, 0x00,
  0x00, 0x00, 0x00, 0x00, 0x00, 0x00, 0x00, 0x00, 0x00, 0x00, 0x00, 0x00,
  0x00, 0x00, 0x00, 0x00, 0x00, 0x00, 0x00, 0x00, 0x00, 0x00, 0x00, 0x00,
  0x00, 0x00, 0x00, 0x00, 0x00, 0x00, 0x00, 0x00, 0x08, 0x00, 0x00, 0x00,
  0xd7, 0xd2, 0xc8, 0x39, 0xbc, 0xfd, 0xc5, 0x39, 0x01, 0x86, 0xcf, 0x39,
  0x04, 0x24, 0x08, 0x3a, 0xfe, 0x03, 0xaf, 0x39, 0xff, 0x1b, 0xde, 0x39,
  0x0a, 0xa5, 0xd1, 0x39, 0x86, 0x61, 0xd2, 0x39, 0x5e, 0x00, 0x00, 0x00,
  0x6d, 0x6f, 0x64, 0x65, 0x6c, 0x5f, 0x31, 0x2f, 0x71, 0x75, 0x61, 0x6e,
  0x74, 0x5f, 0x63, 0x6f, 0x6e, 0x76, 0x32, 0x64, 0x2f, 0x52, 0x65, 0x6c,
  0x75, 0x3b, 0x6d, 0x6f, 0x64, 0x65, 0x6c, 0x5f, 0x31, 0x2f, 0x71, 0x75,
  0x61, 0x6e, 0x74, 0x5f, 0x63, 0x6f, 0x6e, 0x76, 0x32, 0x64, 0x2f, 0x42,
  0x69, 0x61, 0x73, 0x41, 0x64, 0x64, 0x3b, 0x6d, 0x6f, 0x64, 0x65, 0x6c,
  0x5f, 0x31, 0x2f, 0x71, 0x75, 0x61, 0x6e, 0x74, 0x5f, 0x63, 0x6f, 0x6e,
  0x76, 0x32, 0x64, 0x2f, 0x43, 0x6f, 0x6e, 0x76, 0x32, 0x44, 0x3b, 0x63,
  0x6f, 0x6e, 0x76, 0x32, 0x64, 0x2f, 0x62, 0x69, 0x61, 0x73, 0x00, 0x00,
  0x01, 0x00, 0x00, 0x00, 0x08, 0x00, 0x00, 0x00, 0xb2, 0xfe, 0xff, 0xff,
  0x14, 0x00, 0x00, 0x00, 0x88, 0x00, 0x00, 0x00, 0x04, 0x00, 0x00, 0x00,
  0x00, 0x00, 0x00, 0x09, 0xe4, 0x00, 0x00, 0x00, 0x2c, 0xfe, 0xff, 0xff,
  0x08, 0x00, 0x00, 0x00, 0x4c, 0x00, 0x00, 0x00, 0x08, 0x00, 0x00, 0x00,
  0x00, 0x00, 0x00, 0x00, 0x00, 0x00, 0x00, 0x00, 0x00, 0x00, 0x00, 0x00,
  0x00, 0x00, 0x00, 0x00, 0x00, 0x00, 0x00, 0x00, 0x00, 0x00, 0x00, 0x00,
  0x00, 0x00, 0x00, 0x00, 0x00, 0x00, 0x00, 0x00, 0x00, 0x00, 0x00, 0x00,
  0x00, 0x00, 0x00, 0x00, 0x00, 0x00, 0x00, 0x00, 0x00, 0x00, 0x00, 0x00,
  0x00, 0x00, 0x00, 0x00, 0x00, 0x00, 0x00, 0x00, 0x00, 0x00, 0x00, 0x00,
  0x00, 0x00, 0x00, 0x00, 0x00, 0x00, 0x00, 0x00, 0x08, 0x00, 0x00, 0x00,
  0x05, 0x27, 0xc6, 0x3a, 0x8f, 0x5b, 0xc3, 0x3a, 0x5e, 0xc3, 0xcc, 0x3a,
  0x72, 0x54, 0x06, 0x3b, 0x0d, 0xb0, 0xac, 0x3a, 0xb2, 0x27, 0xdb, 0x3a,
  0x2e, 0xdb, 0xce, 0x3a, 0x28, 0x95, 0xcf, 0x3a, 0x61, 0x00, 0x00, 0x00,
  0x6d, 0x6f, 0x64, 0x65, 0x6c, 0x5f, 0x31, 0x2f, 0x71, 0x75, 0x61, 0x6e,
  0x74, 0x5f, 0x63, 0x6f, 0x6e, 0x76, 0x32, 0x64, 0x2f, 0x43, 0x6f, 0x6e,
  0x76, 0x32, 0x44, 0x3b, 0x6d, 0x6f, 0x64, 0x65, 0x6c, 0x5f, 0x31, 0x2f,
  0x71, 0x75, 0x61, 0x6e, 0x74, 0x5f, 0x63, 0x6f, 0x6e, 0x76, 0x32, 0x64,
  0x2f, 0x4c, 0x61, 0x73, 0x74, 0x56, 0x61, 0x6c, 0x75, 0x65, 0x51, 0x75,
  0x61, 0x6e, 0x74, 0x2f, 0x46, 0x61, 0x6b, 0x65, 0x51, 0x75, 0x61, 0x6e,
  0x74, 0x57, 0x69, 0x74, 0x68, 0x4d, 0x69, 0x6e, 0x4d, 0x61, 0x78, 0x56,
  0x61, 0x72, 0x73, 0x50, 0x65, 0x72, 0x43, 0x68, 0x61, 0x6e, 0x6e, 0x65,
  0x6c, 0x00, 0x00, 0x00, 0x04, 0x00, 0x00, 0x00, 0x08, 0x00, 0x00, 0x00,
  0x08, 0x00, 0x00, 0x00, 0x08, 0x00, 0x00, 0x00, 0x01, 0x00, 0x00, 0x00,
  0xbe, 0xff, 0xff, 0xff, 0x14, 0x00, 0x00, 0x00, 0x14, 0x00, 0x00, 0x00,
  0x03, 0x00, 0x00, 0x00, 0x00, 0x00, 0x00, 0x02, 0x24, 0x00, 0x00, 0x00,
  0xb0, 0xff, 0xff, 0xff, 0x15, 0x00, 0x00, 0x00, 0x6d, 0x6f, 0x64, 0x65,
  0x6c, 0x5f, 0x31, 0x2f, 0x66, 0x6c, 0x61, 0x74, 0x74, 0x65, 0x6e, 0x2f,
  0x43, 0x6f, 0x6e, 0x73, 0x74, 0x00, 0x00, 0x00, 0x01, 0x00, 0x00, 0x00,
  0x02, 0x00, 0x00, 0x00, 0x00, 0x00, 0x0e, 0x00, 0x18, 0x00, 0x14, 0x00,
  0x13, 0x00, 0x0c, 0x00, 0x08, 0x00, 0x04, 0x00, 0x0e, 0x00, 0x00, 0x00,
  0x18, 0x00, 0x00, 0x00, 0x18, 0x00, 0x00, 0x00, 0x02, 0x00, 0x00, 0x00,
  0x00, 0x00, 0x00, 0x02, 0x30, 0x00, 0x00, 0x00, 0x04, 0x00, 0x04, 0x00,
  0x04, 0x00, 0x00, 0x00, 0x1c, 0x00, 0x00, 0x00, 0x6d, 0x6f, 0x64, 0x65,
  0x6c, 0x5f, 0x31, 0x2f, 0x72, 0x65, 0x73, 0x69, 0x7a, 0x69, 0x6e, 0x67,
  0x2f, 0x72, 0x65, 0x73, 0x69, 0x7a, 0x65, 0x2f, 0x73, 0x69, 0x7a, 0x65,
  0x00, 0x00, 0x00, 0x00, 0x01, 0x00, 0x00, 0x00, 0x02, 0x00, 0x00, 0x00,
  0x14, 0x00, 0x1c, 0x00, 0x18, 0x00, 0x17, 0x00, 0x10, 0x00, 0x0c, 0x00,
  0x08, 0x00, 0x00, 0x00, 0x00, 0x00, 0x04, 0x00, 0x14, 0x00, 0x00, 0x00,
  0x18, 0x00, 0x00, 0x00, 0x34, 0x00, 0x00, 0x00, 0x54, 0x00, 0x00, 0x00,
  0x01, 0x00, 0x00, 0x00, 0x00, 0x00, 0x00, 0x09, 0x68, 0x00, 0x00, 0x00,
  0x04, 0x00, 0x00, 0x00, 0xff, 0xff, 0xff, 0xff, 0x7c, 0x00, 0x00, 0x00,
  0x81, 0x00, 0x00, 0x00, 0x01, 0x00, 0x00, 0x00, 0x0c, 0x00, 0x0c, 0x00,
  0x00, 0x00, 0x00, 0x00, 0x08, 0x00, 0x04, 0x00, 0x0c, 0x00, 0x00, 0x00,
  0x08, 0x00, 0x00, 0x00, 0x14, 0x00, 0x00, 0x00, 0x01, 0x00, 0x00, 0x00,
  0x80, 0xff, 0xff, 0xff, 0xff, 0xff, 0xff, 0xff, 0x00, 0x00, 0x00, 0x00,
  0x01, 0x00, 0x00, 0x00, 0xba, 0xb9, 0x81, 0x3e, 0x19, 0x00, 0x00, 0x00,
  0x73, 0x65, 0x72, 0x76, 0x69, 0x6e, 0x67, 0x5f, 0x64, 0x65, 0x66, 0x61,
  0x75, 0x6c, 0x74, 0x5f, 0x69, 0x6e, 0x70, 0x75, 0x74, 0x5f, 0x31, 0x3a,
  0x30, 0x00, 0x00, 0x00, 0x04, 0x00, 0x00, 0x00, 0x01, 0x00, 0x00, 0x00,
  0x7c, 0x00, 0x00, 0x00, 0x81, 0x00, 0x00, 0x00, 0x01, 0x00, 0x00, 0x00,
  0x06, 0x00, 0x00, 0x00, 0x7c, 0x00, 0x00, 0x00, 0x5c, 0x00, 0x00, 0x00,
  0x48, 0x00, 0x00, 0x00, 0x38, 0x00, 0x00, 0x00, 0x18, 0x00, 0x00, 0x00,
  0x04, 0x00, 0x00, 0x00, 0xa8, 0xff, 0xff, 0xff, 0x19, 0x00, 0x00, 0x00,
  0x02, 0x00, 0x00, 0x00, 0x00, 0x00, 0x00, 0x19, 0xb8, 0xff, 0xff, 0xff,
  0x09, 0x00, 0x00, 0x00, 0x04, 0x00, 0x00, 0x00, 0x00, 0x00, 0x00, 0x09,
  0x0c, 0x00, 0x0c, 0x00, 0x0b, 0x00, 0x00, 0x00, 0x00, 0x00, 0x04, 0x00,
  0x0c, 0x00, 0x00, 0x00, 0x16, 0x00, 0x00, 0x00, 0x00, 0x00, 0x00, 0x16,
  0xe0, 0xff, 0xff, 0xff, 0x11, 0x00, 0x00, 0x00, 0x02, 0x00, 0x00, 0x00,
  0x00, 0x00, 0x00, 0x11, 0xf0, 0xff, 0xff, 0xff, 0x03, 0x00, 0x00, 0x00,
  0x03, 0x00, 0x00, 0x00, 0x00, 0x00, 0x00, 0x03, 0x0c, 0x00, 0x10, 0x00,
  0x0f, 0x00, 0x00, 0x00, 0x08, 0x00, 0x04, 0x00, 0x0c, 0x00, 0x00, 0x00,
  0x61, 0x00, 0x00, 0x00, 0x03, 0x00, 0x00, 0x00, 0x00, 0x00, 0x00, 0x61
};
